const unsigned char model_v1_binary[] = {
0x1c, 0x00, 0x00, 0x00, 0x54, 0x46, 0x4c, 0x33, 0x14, 0x00, 0x20, 0x00, 
0x1c, 0x00, 0x18, 0x00, 0x14, 0x00, 0x10, 0x00, 0x0c, 0x00, 0x00, 0x00, 
0x08, 0x00, 0x04, 0x00, 0x14, 0x00, 0x00, 0x00, 0x1c, 0x00, 0x00, 0x00, 
0x88, 0x00, 0x00, 0x00, 0xe0, 0x00, 0x00, 0x00, 0x28, 0x1b, 0x00, 0x00, 
0x38, 0x1b, 0x00, 0x00, 0xc4, 0x25, 0x00, 0x00, 0x03, 0x00, 0x00, 0x00, 
0x01, 0x00, 0x00, 0x00, 0x04, 0x00, 0x00, 0x00, 0x92, 0xe3, 0xff, 0xff, 
0x0c, 0x00, 0x00, 0x00, 0x1c, 0x00, 0x00, 0x00, 0x38, 0x00, 0x00, 0x00, 
0x0f, 0x00, 0x00, 0x00, 0x73, 0x65, 0x72, 0x76, 0x69, 0x6e, 0x67, 0x5f, 
0x64, 0x65, 0x66, 0x61, 0x75, 0x6c, 0x74, 0x00, 0x01, 0x00, 0x00, 0x00, 
0x04, 0x00, 0x00, 0x00, 0x94, 0xff, 0xff, 0xff, 0x11, 0x00, 0x00, 0x00, 
0x04, 0x00, 0x00, 0x00, 0x05, 0x00, 0x00, 0x00, 0x64, 0x65, 0x6e, 0x73, 
0x65, 0x00, 0x00, 0x00, 0x01, 0x00, 0x00, 0x00, 0x04, 0x00, 0x00, 0x00, 
0x76, 0xe5, 0xff, 0xff, 0x04, 0x00, 0x00, 0x00, 0x0c, 0x00, 0x00, 0x00, 
0x63, 0x6f, 0x6e, 0x76, 0x31, 0x64, 0x5f, 0x69, 0x6e, 0x70, 0x75, 0x74, 
0x00, 0x00, 0x00, 0x00, 0x02, 0x00, 0x00, 0x00, 0x34, 0x00, 0x00, 0x00, 
0x04, 0x00, 0x00, 0x00, 0xdc, 0xff, 0xff, 0xff, 0x14, 0x00, 0x00, 0x00, 
0x04, 0x00, 0x00, 0x00, 0x13, 0x00, 0x00, 0x00, 0x43, 0x4f, 0x4e, 0x56, 
0x45, 0x52, 0x53, 0x49, 0x4f, 0x4e, 0x5f, 0x4d, 0x45, 0x54, 0x41, 0x44, 
0x41, 0x54, 0x41, 0x00, 0x08, 0x00, 0x0c, 0x00, 0x08, 0x00, 0x04, 0x00, 
0x08, 0x00, 0x00, 0x00, 0x13, 0x00, 0x00, 0x00, 0x04, 0x00, 0x00, 0x00, 
0x13, 0x00, 0x00, 0x00, 0x6d, 0x69, 0x6e, 0x5f, 0x72, 0x75, 0x6e, 0x74, 
0x69, 0x6d, 0x65, 0x5f, 0x76, 0x65, 0x72, 0x73, 0x69, 0x6f, 0x6e, 0x00, 
0x15, 0x00, 0x00, 0x00, 0x44, 0x1a, 0x00, 0x00, 0x3c, 0x1a, 0x00, 0x00, 
0x0c, 0x1a, 0x00, 0x00, 0xd4, 0x19, 0x00, 0x00, 0xb8, 0x19, 0x00, 0x00, 
0xa8, 0x07, 0x00, 0x00, 0x98, 0x04, 0x00, 0x00, 0x84, 0x04, 0x00, 0x00, 
0x6c, 0x04, 0x00, 0x00, 0x58, 0x04, 0x00, 0x00, 0xc8, 0x00, 0x00, 0x00, 
0xc0, 0x00, 0x00, 0x00, 0xb8, 0x00, 0x00, 0x00, 0xb0, 0x00, 0x00, 0x00, 
0xa8, 0x00, 0x00, 0x00, 0xa0, 0x00, 0x00, 0x00, 0x98, 0x00, 0x00, 0x00, 
0x90, 0x00, 0x00, 0x00, 0x88, 0x00, 0x00, 0x00, 0x68, 0x00, 0x00, 0x00, 
0x04, 0x00, 0x00, 0x00, 0x46, 0xe6, 0xff, 0xff, 0x04, 0x00, 0x00, 0x00, 
0x54, 0x00, 0x00, 0x00, 0x0c, 0x00, 0x00, 0x00, 0x08, 0x00, 0x0e, 0x00, 
0x08, 0x00, 0x04, 0x00, 0x08, 0x00, 0x00, 0x00, 0x10, 0x00, 0x00, 0x00, 
0x24, 0x00, 0x00, 0x00, 0x00, 0x00, 0x06, 0x00, 0x08, 0x00, 0x04, 0x00, 
0x06, 0x00, 0x00, 0x00, 0x04, 0x00, 0x00, 0x00, 0x00, 0x00, 0x00, 0x00, 
0x00, 0x00, 0x0a, 0x00, 0x10, 0x00, 0x0c, 0x00, 0x08, 0x00, 0x04, 0x00, 
0x0a, 0x00, 0x00, 0x00, 0x02, 0x00, 0x00, 0x00, 0x02, 0x00, 0x00, 0x00, 
0x04, 0x00, 0x00, 0x00, 0x06, 0x00, 0x00, 0x00, 0x32, 0x2e, 0x31, 0x35, 
0x2e, 0x30, 0x00, 0x00, 0xa6, 0xe6, 0xff, 0xff, 0x04, 0x00, 0x00, 0x00, 
0x10, 0x00, 0x00, 0x00, 0x31, 0x2e, 0x31, 0x34, 0x2e, 0x30, 0x00, 0x00, 
0x00, 0x00, 0x00, 0x00, 0x00, 0x00, 0x00, 0x00, 0x20, 0xdc, 0xff, 0xff, 
0x24, 0xdc, 0xff, 0xff, 0x28, 0xdc, 0xff, 0xff, 0x2c, 0xdc, 0xff, 0xff, 
0x30, 0xdc, 0xff, 0xff, 0x34, 0xdc, 0xff, 0xff, 0x38, 0xdc, 0xff, 0xff, 
0x3c, 0xdc, 0xff, 0xff, 0xe2, 0xe6, 0xff, 0xff, 0x04, 0x00, 0x00, 0x00, 
0x80, 0x03, 0x00, 0x00, 0x4c, 0xab, 0xc3, 0x3e, 0x6a, 0x8b, 0x53, 0x3e, 
0x9a, 0x47, 0xa2, 0x3d, 0x10, 0xce, 0x91, 0x3e, 0xb5, 0x16, 0xe7, 0x3d, 
0xcd, 0x6a, 0xad, 0xbe, 0x51, 0x55, 0x3f, 0x3c, 0x63, 0xaa, 0x45, 0xbe, 
0xa3, 0xfd, 0xab, 0x3d, 0x39, 0xfc, 0x15, 0xbe, 0x42, 0xa9, 0x68, 0x3e, 
0x01, 0xa4, 0x29, 0x3e, 0x71, 0x0e, 0x0e, 0xbe, 0x70, 0x12, 0x1b, 0xbe, 
0x08, 0xad, 0x0d, 0x3e, 0xe0, 0x69, 0xfe, 0xbc, 0xc1, 0xd6, 0x3b, 0x3e, 
0xb0, 0x46, 0x52, 0xbe, 0xd9, 0xd1, 0x12, 0x3e, 0x53, 0x4b, 0x55, 0xbd, 
0xdf, 0xf5, 0x5e, 0xbe, 0xfd, 0x62, 0x94, 0x3c, 0x0e, 0x2c, 0x22, 0xbd, 
0x32, 0x43, 0xa8, 0xbe, 0x1b, 0x0b, 0x5d, 0x3e, 0x99, 0xc9, 0xad, 0x3d, 
0x71, 0xa8, 0x4f, 0x3e, 0x2a, 0x8d, 0xda, 0xbc, 0x05, 0x70, 0x52, 0x3b, 
0x0a, 0xe0, 0xa1, 0xbd, 0x9f, 0x43, 0xb7, 0x3d, 0xcb, 0x26, 0xce, 0xbd, 
0x2b, 0xf6, 0x92, 0x3d, 0xec, 0x1e, 0x86, 0xbd, 0x6c, 0x99, 0x40, 0xbd, 
0x8b, 0xc5, 0x04, 0x3e, 0x87, 0xfb, 0x26, 0xbe, 0xda, 0x87, 0x12, 0x3d, 
0x51, 0x04, 0xb8, 0x3d, 0x2f, 0xfc, 0x9d, 0xbe, 0x78, 0x72, 0x13, 0x3e, 
0xd7, 0x46, 0xb4, 0x3d, 0x2f, 0xac, 0x53, 0x3e, 0x5a, 0x7c, 0x17, 0x3e, 
0x28, 0x64, 0x47, 0xbe, 0x36, 0xd7, 0x62, 0xbd, 0x0a, 0x26, 0x06, 0x3e, 
0xe3, 0x85, 0xb7, 0xbd, 0x94, 0x68, 0x64, 0x3e, 0x2c, 0xfa, 0x6f, 0xbd, 
0xa6, 0xd3, 0xa5, 0x3c, 0xaf, 0x0b, 0xd3, 0x3d, 0xc8, 0x84, 0x4a, 0x3e, 
0xf1, 0xac, 0xc3, 0xbd, 0x5a, 0xf9, 0xb7, 0xbc, 0xac, 0xa5, 0x7b, 0xbe, 
0xfc, 0xdc, 0x69, 0xbd, 0x34, 0x10, 0x80, 0xbd, 0x62, 0x2a, 0x25, 0xbe, 
0x59, 0x79, 0xbb, 0x3d, 0x59, 0x88, 0x38, 0xbe, 0xe7, 0x32, 0x51, 0xbe, 
0x03, 0xf4, 0x88, 0x3d, 0x80, 0xc1, 0x2c, 0xbd, 0xc7, 0x9d, 0xdf, 0x3c, 
0x90, 0xf3, 0x68, 0x3e, 0x4a, 0x44, 0x8e, 0xbd, 0x52, 0x1c, 0x0e, 0x3d, 
0x90, 0x43, 0xc5, 0xbe, 0xa7, 0x52, 0x12, 0xbe, 0x16, 0x7b, 0x94, 0x3d, 
0x19, 0x8e, 0x4b, 0x3c, 0xa3, 0xe9, 0xbe, 0x3d, 0xc6, 0x39, 0x28, 0x3e, 
0x8e, 0x47, 0x76, 0xbd, 0x21, 0xee, 0xc1, 0x3d, 0xc6, 0x32, 0x3a, 0x3b, 
0xd2, 0x79, 0xac, 0x3d, 0xef, 0xa6, 0xf3, 0xbd, 0x87, 0x4f, 0x49, 0xbe, 
0x5d, 0x25, 0xdf, 0x3d, 0x94, 0xc0, 0x18, 0x3e, 0x0c, 0x81, 0xbb, 0x3d, 
0x38, 0x66, 0x22, 0x3e, 0xc0, 0x66, 0x83, 0x3e, 0xdf, 0xed, 0xb8, 0x3c, 
0x68, 0x86, 0x2c, 0xbe, 0xc7, 0x4d, 0x36, 0xbe, 0x8c, 0x6f, 0xda, 0x3d, 
0x0e, 0xa1, 0x08, 0x3e, 0xbe, 0x7b, 0x22, 0xbe, 0xbb, 0x1e, 0xa9, 0x3d, 
0xba, 0x3b, 0x15, 0xbe, 0x6c, 0x33, 0xba, 0xbc, 0x0d, 0x92, 0x52, 0x3d, 
0x12, 0xd2, 0xce, 0xbd, 0xdf, 0x56, 0x9f, 0xbd, 0x53, 0x19, 0x94, 0xbe, 
0xae, 0xa2, 0xc7, 0x3d, 0xae, 0x95, 0xda, 0x3c, 0xd1, 0x59, 0x44, 0xbe, 
0xc8, 0xba, 0x9e, 0x3d, 0xc9, 0x6a, 0xce, 0xbd, 0x37, 0x6b, 0x50, 0xbe, 
0xeb, 0x5e, 0x0c, 0xbd, 0xa0, 0x07, 0xac, 0xbd, 0x55, 0xea, 0x8b, 0x3a, 
0xa9, 0xbd, 0x15, 0xbc, 0xb1, 0x08, 0x09, 0xbf, 0x60, 0x70, 0x09, 0xbe, 
0x64, 0x76, 0x20, 0x3d, 0xab, 0x68, 0xb0, 0x3d, 0xc2, 0xa5, 0x5d, 0xbe, 
0xbc, 0x71, 0x49, 0xbd, 0x6f, 0x55, 0x09, 0xbd, 0x17, 0xb4, 0xec, 0x3d, 
0xae, 0xb2, 0xe8, 0x3d, 0xab, 0x28, 0xc6, 0xbd, 0x6d, 0x3c, 0xde, 0x3d, 
0x4e, 0x0d, 0x13, 0x3c, 0x15, 0x6d, 0x4c, 0xbd, 0xbe, 0x91, 0x4f, 0xbd, 
0xb4, 0x01, 0xea, 0x3d, 0x60, 0x8c, 0x37, 0xbe, 0x10, 0x8f, 0x2f, 0xbe, 
0xd2, 0xea, 0x08, 0x3d, 0xda, 0x56, 0x09, 0x3e, 0x64, 0xeb, 0x8d, 0xbd, 
0x7c, 0x14, 0xa6, 0xbc, 0x25, 0xc2, 0xb7, 0xbc, 0xe7, 0xa1, 0x36, 0x3d, 
0xd4, 0x87, 0x19, 0xba, 0x8b, 0xa5, 0x39, 0xbe, 0xbf, 0xa1, 0xe5, 0x3d, 
0xa1, 0x16, 0x54, 0x3c, 0x8c, 0xf7, 0x19, 0xba, 0x19, 0x0f, 0x85, 0xbb, 
0xf0, 0xe6, 0xf9, 0xbd, 0x9b, 0x6a, 0xcd, 0x3d, 0x88, 0x07, 0xba, 0x3d, 
0x62, 0x86, 0x26, 0xbf, 0x71, 0x37, 0x7e, 0xbd, 0x7e, 0x5b, 0x0b, 0xbe, 
0xeb, 0x05, 0x2f, 0xbe, 0x7d, 0x39, 0x38, 0xbe, 0x94, 0xd2, 0x26, 0xbe, 
0xa6, 0x60, 0x32, 0xbe, 0x52, 0x24, 0x84, 0xbd, 0xb7, 0x56, 0x28, 0xbd, 
0xb6, 0x92, 0x82, 0xbd, 0x2a, 0x59, 0xbb, 0x3d, 0xa7, 0x7b, 0x37, 0x3d, 
0xa2, 0x48, 0x0a, 0x3a, 0xf5, 0xae, 0x82, 0x3e, 0x2c, 0xe4, 0x09, 0xbe, 
0xbf, 0x13, 0xcd, 0x3a, 0x09, 0x36, 0xfb, 0xbd, 0x7f, 0xd2, 0xd9, 0x3d, 
0x50, 0x97, 0xda, 0x3d, 0xcb, 0xcf, 0xac, 0xbc, 0xf9, 0xf0, 0x03, 0xbe, 
0x87, 0x4b, 0xc2, 0xbd, 0xe3, 0x93, 0x12, 0xbe, 0x2e, 0x9d, 0x82, 0xbc, 
0x22, 0x02, 0x0a, 0x3e, 0x47, 0xb2, 0xbe, 0xbd, 0x7f, 0x8b, 0x81, 0xbd, 
0x0c, 0xe3, 0x06, 0xbe, 0xab, 0x2e, 0x8e, 0xbd, 0xdb, 0x3a, 0x50, 0xbe, 
0xc6, 0xc9, 0xcb, 0x3d, 0xbe, 0xb7, 0x78, 0x3c, 0xce, 0x31, 0x56, 0xbe, 
0x4d, 0xd7, 0x59, 0xbd, 0x5c, 0x14, 0x92, 0x3c, 0xb4, 0x1b, 0x8d, 0x3d, 
0x07, 0x58, 0x17, 0x3d, 0x92, 0xcf, 0x61, 0xbe, 0x23, 0x23, 0x84, 0x3d, 
0x5d, 0xea, 0x03, 0xbd, 0x5e, 0xe6, 0x4f, 0x3b, 0x2d, 0xb2, 0x02, 0x3d, 
0x74, 0x47, 0xa9, 0x3c, 0x02, 0x9b, 0xd7, 0x3d, 0x64, 0x26, 0x84, 0xbe, 
0x7d, 0xe1, 0x39, 0xbe, 0xd3, 0x61, 0xec, 0x3d, 0x67, 0xf8, 0xd3, 0x3d, 
0x7d, 0x99, 0x89, 0xbe, 0x42, 0xf2, 0x07, 0xbe, 0xbf, 0xb2, 0xd2, 0xbc, 
0x23, 0x7b, 0x2b, 0xbe, 0x13, 0x8d, 0x71, 0x3c, 0x40, 0xa7, 0x23, 0x3d, 
0xc1, 0x32, 0x15, 0xbd, 0xab, 0x11, 0xad, 0x3c, 0x31, 0x62, 0x0f, 0xbd, 
0xc1, 0x0a, 0x27, 0x3e, 0x00, 0x33, 0xa5, 0xbc, 0xd9, 0x59, 0xf7, 0xbc, 
0x29, 0xfb, 0x56, 0xbe, 0xf9, 0x57, 0x70, 0xbd, 0xae, 0xd6, 0x2b, 0xbd, 
0x4b, 0xf9, 0xd5, 0xbd, 0x68, 0x61, 0x38, 0xbd, 0x6e, 0xcb, 0x6b, 0xbd, 
0x33, 0x31, 0xe5, 0xbd, 0x19, 0x50, 0x23, 0xbe, 0x6e, 0x54, 0xbb, 0xbd, 
0xcf, 0x21, 0x0c, 0xbe, 0x9f, 0x1b, 0x84, 0xbe, 0x4b, 0x00, 0x15, 0xbe, 
0x1a, 0xec, 0xcd, 0xbd, 0x5f, 0x4c, 0x24, 0xbe, 0xdf, 0x58, 0x8e, 0xbc, 
0x23, 0xf3, 0x67, 0xbc, 0xa0, 0xa1, 0x1f, 0xbe, 0x76, 0x5d, 0x0d, 0x3d, 
0x7d, 0xd1, 0x71, 0xbe, 0x7a, 0xb1, 0x03, 0xbe, 0x4c, 0x2e, 0x02, 0xbe, 
0x2c, 0x65, 0x33, 0xbe, 0xc7, 0x3e, 0xd4, 0xbc, 0xfd, 0xcd, 0x8c, 0xbd, 
0x6e, 0xea, 0xff, 0xff, 0x04, 0x00, 0x00, 0x00, 0x04, 0x00, 0x00, 0x00, 
0xfd, 0xff, 0xff, 0xff, 0x7e, 0xea, 0xff, 0xff, 0x04, 0x00, 0x00, 0x00, 
0x08, 0x00, 0x00, 0x00, 0xff, 0xff, 0xff, 0xff, 0xe0, 0x00, 0x00, 0x00, 
0x92, 0xea, 0xff, 0xff, 0x04, 0x00, 0x00, 0x00, 0x04, 0x00, 0x00, 0x00, 
0xe6, 0xd7, 0x78, 0xbd, 0xa2, 0xea, 0xff, 0xff, 0x04, 0x00, 0x00, 0x00, 
0x00, 0x03, 0x00, 0x00, 0x9f, 0x65, 0x5d, 0x3e, 0x5e, 0x02, 0x2f, 0xbe, 
0x67, 0xd6, 0xec, 0xbe, 0x05, 0xff, 0xc1, 0x3e, 0xe2, 0x33, 0xb5, 0xbd, 
0x6c, 0x9f, 0x00, 0x3f, 0x99, 0x0f, 0x34, 0x3e, 0xcb, 0x88, 0xa7, 0xbe, 
0x5e, 0x71, 0x64, 0x3d, 0x2b, 0x46, 0x30, 0x3e, 0x3d, 0x0c, 0x58, 0x3e, 
0x79, 0x55, 0x89, 0x3c, 0x6f, 0xbd, 0xdd, 0x3d, 0x5e, 0x9e, 0x5c, 0x3e, 
0xb1, 0x46, 0xd9, 0xbd, 0x79, 0xfa, 0x8f, 0xbe, 0x11, 0xbb, 0x31, 0x3d, 
0x3b, 0x45, 0xa9, 0xbe, 0x40, 0xb6, 0xaa, 0xbb, 0x93, 0x7f, 0xad, 0x3e, 
0x89, 0x7c, 0x4c, 0x3e, 0x7d, 0x99, 0x8f, 0x3d, 0x70, 0x09, 0x9a, 0x3d, 
0x55, 0x06, 0x83, 0xbe, 0x19, 0x09, 0x9a, 0xbe, 0xc5, 0x9e, 0xb1, 0xbd, 
0xe5, 0x08, 0x24, 0x3e, 0xaa, 0x2c, 0xa0, 0xbe, 0xb8, 0x52, 0x0f, 0xbe, 
0xa2, 0x32, 0x97, 0x3e, 0x39, 0x47, 0x81, 0xbe, 0x40, 0xf7, 0xa6, 0xbd, 
0x6c, 0x3d, 0xdc, 0x3d, 0x2d, 0x96, 0xa0, 0xbe, 0xd3, 0xb3, 0x85, 0x3e, 
0xd7, 0x90, 0x59, 0xbe, 0xff, 0x03, 0xae, 0xbd, 0xff, 0x91, 0xac, 0x3e, 
0xe2, 0x3b, 0x48, 0x3e, 0xed, 0x60, 0xd3, 0x3e, 0xf8, 0x44, 0x09, 0x3e, 
0xb5, 0x1f, 0x4e, 0xba, 0xe8, 0x90, 0x9e, 0xbd, 0x69, 0xbf, 0xc4, 0x3e, 
0xa7, 0x9b, 0x8c, 0xbb, 0x48, 0xbf, 0x81, 0xbe, 0xdf, 0xc3, 0xca, 0x3e, 
0xff, 0xe1, 0x99, 0xbe, 0x00, 0x0b, 0xd4, 0x3e, 0xb3, 0xb9, 0x82, 0xbd, 
0xf4, 0xaf, 0x86, 0xbe, 0x65, 0x91, 0x1b, 0x3e, 0xf6, 0x11, 0xe9, 0x3d, 
0xb4, 0x76, 0x10, 0x3e, 0x6a, 0xb4, 0x5e, 0x3e, 0x54, 0x24, 0x36, 0x3e, 
0x03, 0x02, 0xa3, 0x3e, 0x67, 0x4d, 0x3e, 0x3e, 0xd0, 0xea, 0x22, 0x3e, 
0x40, 0xa3, 0xf7, 0x3c, 0xa3, 0x92, 0xc0, 0x3d, 0x4d, 0x06, 0x2f, 0x3e, 
0x17, 0xe3, 0xc0, 0x3e, 0xc7, 0x42, 0x8d, 0x3e, 0x49, 0xc1, 0x06, 0x3e, 
0xa7, 0x2a, 0xdd, 0xbd, 0x8f, 0x14, 0x2f, 0xbe, 0x47, 0xcc, 0x3f, 0xbe, 
0x00, 0x38, 0x59, 0xbe, 0xaf, 0xb4, 0x0d, 0xbc, 0x6f, 0x6a, 0xd2, 0x3e, 
0x5d, 0x3e, 0xe3, 0xbe, 0x4c, 0xae, 0x85, 0x3e, 0xa9, 0x01, 0x63, 0xbe, 
0xc2, 0xb8, 0x80, 0x3e, 0xd4, 0x37, 0x22, 0x3e, 0xed, 0xbc, 0xb7, 0xbd, 
0x36, 0xb7, 0xd7, 0x3e, 0xfe, 0xa6, 0xd6, 0x3e, 0x86, 0x02, 0x96, 0xbb, 
0x60, 0xcc, 0xcc, 0x3e, 0x2b, 0x36, 0x41, 0xbd, 0xbb, 0xce, 0x3a, 0x3d, 
0x83, 0xd2, 0x38, 0x3e, 0xaf, 0x59, 0xa1, 0x3e, 0xf3, 0x59, 0xdc, 0x3d, 
0x63, 0xc3, 0x73, 0x3d, 0xe2, 0x21, 0x8b, 0x3e, 0xac, 0xa4, 0x35, 0xbe, 
0x07, 0x1e, 0xa1, 0xbd, 0xe7, 0xcb, 0x9d, 0xbe, 0x36, 0x0b, 0xa3, 0xbe, 
0x1b, 0xf3, 0xf6, 0x3d, 0x0d, 0x1d, 0xf0, 0x3d, 0x87, 0xd1, 0x62, 0xbe, 
0x87, 0x36, 0xc1, 0x3a, 0x9e, 0x82, 0x80, 0xbe, 0x91, 0x4f, 0x39, 0x3e, 
0x15, 0x3a, 0x19, 0x3f, 0x7c, 0xe5, 0x9e, 0x3d, 0x50, 0xb8, 0x35, 0xbe, 
0x68, 0x1a, 0x82, 0x3e, 0xc3, 0x72, 0x88, 0x3e, 0xcc, 0xb1, 0x9b, 0xbc, 
0x89, 0x7c, 0x89, 0x3e, 0xf6, 0x51, 0x45, 0xbe, 0x88, 0x8c, 0x09, 0x3e, 
0x0e, 0x75, 0x47, 0xbe, 0x49, 0xc3, 0x82, 0x3e, 0x2e, 0x8e, 0x17, 0xbe, 
0xcb, 0xae, 0x21, 0xbe, 0x9e, 0x74, 0x36, 0x3e, 0x65, 0x11, 0x85, 0xbd, 
0x05, 0x0a, 0xf3, 0xbd, 0x2a, 0x6a, 0xa1, 0xbd, 0x22, 0x87, 0x9a, 0x3e, 
0xcc, 0x40, 0x82, 0xbe, 0xb5, 0x0e, 0xb1, 0xbb, 0x2d, 0x5d, 0x8f, 0xbe, 
0xb1, 0x63, 0x10, 0x3e, 0xcc, 0x06, 0x23, 0x3e, 0xcc, 0xd7, 0x98, 0x3e, 
0xfa, 0x7d, 0xc2, 0x3e, 0x5b, 0x9c, 0x20, 0x3d, 0xed, 0x75, 0xac, 0x3e, 
0xd1, 0x28, 0xe8, 0xbe, 0xce, 0x2e, 0x4e, 0x3e, 0x41, 0x11, 0x88, 0xbe, 
0x8e, 0x1f, 0xd0, 0xbb, 0x21, 0xca, 0x13, 0x3d, 0xb8, 0xe3, 0x7d, 0xbd, 
0x36, 0xe2, 0x4f, 0x3d, 0x49, 0xd5, 0xfb, 0x3d, 0xfb, 0x08, 0x95, 0x3d, 
0x17, 0x31, 0xad, 0xbe, 0x63, 0x57, 0xbc, 0xbe, 0x97, 0x6d, 0x4b, 0xbe, 
0xdd, 0x44, 0x46, 0x3e, 0xd4, 0x2f, 0x4e, 0xbe, 0x88, 0xac, 0x23, 0x3e, 
0x75, 0x34, 0x36, 0xbe, 0x88, 0x31, 0x88, 0xbe, 0x0a, 0x61, 0x0c, 0xbc, 
0xa6, 0x5f, 0x2e, 0xbc, 0xce, 0x25, 0x4e, 0xbe, 0x3f, 0x5c, 0x9d, 0xbe, 
0xa9, 0x40, 0x7d, 0xbe, 0xe1, 0xe0, 0x93, 0xbe, 0xa2, 0xd5, 0x18, 0x3d, 
0x5c, 0x4f, 0x2a, 0xbe, 0x61, 0x32, 0xa8, 0x3d, 0xbe, 0x20, 0x90, 0xbc, 
0xc3, 0xa6, 0x51, 0x3e, 0xad, 0x23, 0x4a, 0xbe, 0x62, 0x74, 0xc2, 0xbd, 
0x5d, 0xdc, 0x49, 0xbe, 0xc5, 0xf9, 0x8e, 0x3d, 0x05, 0x87, 0x2d, 0x3e, 
0x73, 0x3c, 0x8c, 0x3b, 0x59, 0x3a, 0xbc, 0x3d, 0xb0, 0x19, 0x0a, 0xbe, 
0xa9, 0xa7, 0x87, 0xbd, 0x1e, 0xbe, 0xc7, 0xbd, 0x10, 0x3b, 0xa5, 0xbe, 
0x87, 0xb2, 0x9e, 0x3d, 0x35, 0x12, 0x89, 0xbd, 0xfa, 0x88, 0x29, 0x3e, 
0x26, 0x94, 0x26, 0x3d, 0xce, 0x50, 0xd4, 0xbe, 0xb4, 0xb3, 0x9d, 0x3e, 
0x0f, 0x4e, 0x96, 0x3e, 0xcd, 0x5e, 0x77, 0x3e, 0x45, 0xae, 0xc8, 0x3e, 
0x24, 0xa5, 0x3a, 0xbe, 0x6d, 0xa0, 0x1e, 0xbd, 0x00, 0xe6, 0xf9, 0xbd, 
0x41, 0x7e, 0x02, 0xbe, 0xd2, 0xb9, 0x15, 0xbe, 0xa7, 0xf4, 0x3e, 0x3e, 
0xbd, 0x12, 0xb0, 0xbd, 0x91, 0x91, 0xc9, 0x3d, 0x3a, 0xd1, 0xd4, 0x3d, 
0xba, 0xd4, 0xae, 0x3c, 0xf1, 0x5d, 0xdc, 0xbd, 0xb1, 0x4d, 0x51, 0xbe, 
0x6e, 0xfa, 0x7b, 0xbe, 0x1e, 0xe5, 0x52, 0x3e, 0xa9, 0xb8, 0xf1, 0x3d, 
0xce, 0xed, 0xb3, 0x3d, 0x8e, 0xea, 0xc1, 0xbe, 0xe2, 0xbd, 0x17, 0xbd, 
0xa1, 0x20, 0xc9, 0x3e, 0xae, 0xed, 0xff, 0xff, 0x04, 0x00, 0x00, 0x00, 
0x00, 0x12, 0x00, 0x00, 0x37, 0x31, 0x1f, 0x3c, 0x91, 0x8a, 0x80, 0xbd, 
0x57, 0xc9, 0x03, 0xbe, 0xeb, 0x21, 0x15, 0xbd, 0xf4, 0x7c, 0x0f, 0xbc, 
0x2b, 0x38, 0x8f, 0xbd, 0x42, 0x47, 0xdc, 0x3b, 0x17, 0x72, 0xd3, 0xbd, 
0x6b, 0x0e, 0x94, 0xbd, 0xca, 0x2f, 0x1b, 0xbd, 0x3c, 0xe5, 0xb4, 0x3e, 
0xe1, 0xa3, 0x4f, 0x3e, 0x21, 0x8e, 0x01, 0xbe, 0x36, 0xad, 0x24, 0xbe, 
0xe8, 0x96, 0xd0, 0xbd, 0xee, 0x3e, 0xdb, 0xbd, 0x16, 0x2c, 0x74, 0xbe, 
0xe7, 0x7d, 0x6f, 0x3e, 0x86, 0xe7, 0x76, 0xbd, 0x6b, 0x52, 0xf1, 0xbc, 
0x55, 0x55, 0xdd, 0xbd, 0x97, 0x59, 0x89, 0x3c, 0x15, 0x76, 0xa5, 0x3d, 
0x37, 0xa7, 0x89, 0xbc, 0x37, 0x62, 0x21, 0xbd, 0x89, 0xd7, 0x61, 0x3e, 
0xc0, 0x85, 0x2d, 0x3e, 0x26, 0xfa, 0xd9, 0xbc, 0x48, 0x67, 0x57, 0x3d, 
0x0b, 0x28, 0x82, 0x3d, 0x6a, 0x6a, 0x0e, 0xbe, 0xf6, 0x71, 0xea, 0xbd, 
0xfb, 0xb1, 0xdb, 0x3c, 0x1a, 0xfc, 0x60, 0xbe, 0x22, 0x32, 0x94, 0x3e, 
0x51, 0x67, 0x8e, 0x3c, 0x2d, 0xf2, 0xf0, 0x3d, 0x07, 0x38, 0x28, 0xbe, 
0x83, 0xa7, 0x81, 0xbd, 0x95, 0x1a, 0x98, 0xbd, 0xe2, 0xad, 0x1b, 0x3e, 
0xa6, 0x5f, 0x36, 0xbe, 0x22, 0xac, 0x67, 0x3b, 0x18, 0x64, 0xb5, 0xbd, 
0x23, 0xf8, 0x2f, 0x3e, 0x97, 0xf4, 0xb0, 0xbc, 0x5b, 0x0d, 0xe6, 0xbc, 
0x44, 0xcd, 0x36, 0xbd, 0xa1, 0xd0, 0x78, 0xbd, 0x67, 0x05, 0xbe, 0xbd, 
0x29, 0x59, 0x00, 0x3e, 0x1c, 0xd3, 0x28, 0xbe, 0xdd, 0x95, 0x28, 0x3e, 
0xfe, 0x78, 0x79, 0xbd, 0x18, 0x5e, 0x1a, 0x3e, 0x8f, 0xae, 0x1f, 0xbe, 
0x79, 0x04, 0x40, 0xbe, 0x42, 0x99, 0x8d, 0xbd, 0x34, 0xeb, 0xc7, 0x3e, 
0x3b, 0x22, 0xf6, 0xbd, 0x19, 0xbe, 0x00, 0xbe, 0xd5, 0x49, 0x70, 0x3d, 
0xc3, 0x5a, 0x36, 0x3e, 0xdd, 0x91, 0x41, 0xbc, 0xbc, 0x26, 0x94, 0xbd, 
0x0b, 0x39, 0x77, 0x3e, 0x3a, 0x50, 0x92, 0x3d, 0x24, 0xb7, 0x58, 0xbe, 
0x0e, 0x3b, 0x02, 0x3e, 0x9d, 0x27, 0x3d, 0xbe, 0xc8, 0xe7, 0xed, 0x3d, 
0x55, 0xd2, 0xdb, 0x3c, 0x55, 0x23, 0x33, 0x3d, 0x26, 0xd7, 0x98, 0x3e, 
0x49, 0xe1, 0x83, 0x3c, 0x22, 0x56, 0xfd, 0x3d, 0xd7, 0x4a, 0x42, 0x3c, 
0x0d, 0x30, 0x83, 0xbd, 0x3a, 0xe4, 0xf3, 0x3d, 0x4c, 0xb1, 0x09, 0xbe, 
0xbd, 0x79, 0x48, 0xbe, 0x54, 0x0c, 0x12, 0xbe, 0xee, 0x87, 0x1a, 0x3c, 
0xe8, 0xd6, 0x2c, 0x3e, 0xfa, 0xc5, 0x0a, 0x3d, 0xd5, 0x5f, 0x45, 0xbd, 
0x11, 0xb6, 0x04, 0xbe, 0x1b, 0x5d, 0x03, 0x3e, 0xc2, 0xca, 0x3a, 0xbd, 
0xea, 0x7a, 0x4d, 0xbd, 0x6c, 0x50, 0xbc, 0xbc, 0x9b, 0xad, 0x3c, 0xbd, 
0xbb, 0x10, 0x06, 0x3e, 0xdf, 0xac, 0xbd, 0x3d, 0xa1, 0xa2, 0x3b, 0xbe, 
0x4d, 0xbb, 0x20, 0xbd, 0xca, 0x30, 0x1f, 0x3d, 0xb3, 0x1f, 0x0c, 0x3e, 
0xcb, 0x22, 0x1e, 0x3e, 0xd2, 0x81, 0xfd, 0x3d, 0x71, 0x90, 0xc5, 0x3c, 
0x7a, 0xa7, 0x08, 0x3e, 0xa0, 0x83, 0xd5, 0x3d, 0xcb, 0x5d, 0xa9, 0xbd, 
0x1b, 0xd7, 0x8b, 0xbe, 0x93, 0x34, 0x9f, 0x3d, 0x42, 0xd1, 0x6c, 0x3e, 
0x15, 0x20, 0xd3, 0x3c, 0x6c, 0x5e, 0x16, 0x3e, 0xd0, 0x2b, 0x02, 0xbd, 
0x12, 0x09, 0x3f, 0x3e, 0x43, 0xbd, 0xa5, 0x3d, 0x4b, 0xa0, 0xa5, 0xbe, 
0x7b, 0x28, 0x62, 0x3e, 0xf9, 0xfc, 0x9c, 0x3d, 0x9e, 0x79, 0xc2, 0xbd, 
0xab, 0x02, 0xf2, 0xbd, 0xcc, 0x70, 0x49, 0x3d, 0x83, 0xca, 0xa3, 0xbb, 
0xcb, 0x64, 0xc8, 0xbd, 0x14, 0x7d, 0x44, 0x3d, 0x54, 0xf3, 0xb3, 0x3d, 
0x7b, 0xfa, 0x18, 0x3e, 0xff, 0xdb, 0xbc, 0xbb, 0x1d, 0xf4, 0xbb, 0x3a, 
0x02, 0xea, 0x70, 0xbc, 0x97, 0x4d, 0x9d, 0x3d, 0x74, 0x8b, 0x25, 0x3e, 
0xe9, 0x8f, 0x2f, 0x3e, 0x77, 0x3d, 0x0a, 0xbd, 0xc4, 0x48, 0xd8, 0x3c, 
0x94, 0x5e, 0x5d, 0x3e, 0xd9, 0x1f, 0x72, 0x3d, 0xb5, 0x10, 0xe0, 0xbd, 
0x30, 0x33, 0x1b, 0xbe, 0x55, 0x08, 0x08, 0x3e, 0x82, 0x6e, 0xee, 0x3d, 
0xe2, 0xb9, 0x9f, 0x3d, 0x4e, 0x89, 0x08, 0xbe, 0x41, 0x81, 0xb4, 0x3d, 
0x12, 0x64, 0xcd, 0xbc, 0x44, 0x9a, 0x1d, 0xbe, 0x3a, 0xe8, 0xd2, 0x3c, 
0x36, 0x57, 0x1f, 0xbe, 0xde, 0x4d, 0xd0, 0x3d, 0xcc, 0x54, 0x1a, 0x3e, 
0x59, 0x4c, 0xe1, 0xbd, 0xdc, 0x10, 0x1b, 0x3d, 0x04, 0xd9, 0xbb, 0xbd, 
0x60, 0x0e, 0x0f, 0x3e, 0x43, 0xf6, 0x22, 0x3e, 0x39, 0xba, 0x0a, 0xbe, 
0xfe, 0x2a, 0x94, 0x3d, 0xeb, 0xca, 0xe4, 0xbd, 0xfc, 0xea, 0x98, 0xbe, 
0x6f, 0xcb, 0x40, 0xbe, 0x9e, 0xc5, 0x8e, 0x3c, 0x8a, 0x16, 0x58, 0x3e, 
0xfa, 0x5d, 0xfb, 0x3d, 0x14, 0x19, 0x2e, 0x3e, 0x14, 0xab, 0x38, 0x3d, 
0xba, 0xfb, 0xf7, 0xbc, 0x3c, 0x96, 0xfc, 0xbd, 0xcc, 0x2e, 0xa2, 0xbd, 
0x40, 0x9c, 0xb0, 0x3d, 0xd3, 0x85, 0x41, 0xbe, 0xc1, 0x88, 0x86, 0x3d, 
0xab, 0x17, 0x32, 0xbc, 0x98, 0xdf, 0x92, 0x3d, 0xc8, 0x08, 0x86, 0xbe, 
0xb8, 0x4d, 0x9d, 0x3d, 0x18, 0x3c, 0x0f, 0xbd, 0x96, 0x57, 0x22, 0x3e, 
0x0e, 0xa1, 0x4e, 0x3c, 0x24, 0x35, 0x39, 0xbc, 0xa1, 0xcb, 0xca, 0x3d, 
0xc0, 0xcb, 0x46, 0xbe, 0x55, 0xbb, 0x0d, 0x3d, 0x1a, 0x05, 0x06, 0xbc, 
0x40, 0x74, 0xec, 0xbd, 0x0b, 0x12, 0x4a, 0xbe, 0x2a, 0x1c, 0xcc, 0xbd, 
0xf0, 0x86, 0x64, 0xbd, 0xc1, 0xc6, 0x33, 0xbe, 0x19, 0x41, 0x06, 0xbd, 
0xf0, 0x2c, 0xa8, 0x3a, 0x8b, 0xca, 0x52, 0xbd, 0xa0, 0x1a, 0x8b, 0xbd, 
0xd3, 0xb7, 0xa0, 0xbc, 0x0e, 0x23, 0x4b, 0xbe, 0x99, 0xe7, 0x23, 0xbe, 
0x4e, 0xa5, 0xca, 0xbc, 0x47, 0xe5, 0x02, 0x3e, 0x74, 0x08, 0x96, 0xbd, 
0x70, 0x45, 0x58, 0xbd, 0x17, 0x72, 0x06, 0x3d, 0x70, 0x34, 0x64, 0x3e, 
0x11, 0x10, 0xb1, 0x3d, 0xdc, 0xf6, 0x37, 0xbd, 0x71, 0x9d, 0x9b, 0x3d, 
0x0d, 0xf2, 0x5a, 0xbd, 0x1d, 0xab, 0x93, 0x3c, 0xfb, 0xa7, 0xc6, 0xbd, 
0x45, 0xc0, 0xc0, 0xbd, 0x21, 0x85, 0x80, 0xbd, 0xc4, 0x5d, 0x4a, 0x3d, 
0x30, 0x81, 0xda, 0x3c, 0x40, 0x3f, 0x36, 0xbd, 0x3f, 0x0f, 0xe1, 0x3d, 
0xdf, 0xa4, 0x8f, 0xbd, 0x79, 0xc2, 0x75, 0xbd, 0x9a, 0xbc, 0x95, 0x3d, 
0x80, 0xd1, 0x4c, 0xbd, 0x21, 0x98, 0x19, 0xbe, 0xeb, 0x07, 0x1b, 0x3e, 
0x8d, 0xd5, 0xdf, 0xba, 0x0b, 0x86, 0x51, 0xbe, 0x95, 0xf8, 0xf0, 0xbd, 
0x85, 0x21, 0xfd, 0xbd, 0x42, 0x10, 0x3a, 0xbe, 0x23, 0xd4, 0x1e, 0x3e, 
0x1e, 0x3f, 0x0c, 0xbe, 0xfe, 0x18, 0x9d, 0x3d, 0x76, 0xfa, 0xc3, 0xbd, 
0x09, 0x48, 0x32, 0x3e, 0x88, 0x8d, 0x5a, 0xbd, 0x14, 0x60, 0xaf, 0xbd, 
0xb2, 0x60, 0xbc, 0xbd, 0x2b, 0x93, 0x05, 0x3e, 0x11, 0xc9, 0x36, 0x3d, 
0xff, 0x8f, 0x97, 0xbd, 0xca, 0x06, 0x23, 0x3e, 0xba, 0xad, 0xc6, 0xbd, 
0x7b, 0x53, 0x61, 0xbc, 0x8f, 0xbb, 0xaf, 0x3c, 0x0c, 0x04, 0x0f, 0x3d, 
0x24, 0xe2, 0xbd, 0xbd, 0x74, 0x91, 0x0d, 0xbd, 0x12, 0xc7, 0x57, 0x3d, 
0x98, 0xec, 0xd8, 0x3d, 0x57, 0x57, 0xaa, 0xbc, 0x9c, 0x9d, 0xdb, 0x3d, 
0x77, 0x0d, 0xec, 0xbd, 0xd4, 0x9a, 0x6e, 0xbd, 0x1e, 0xc0, 0xc8, 0x3d, 
0x25, 0x29, 0x20, 0x3e, 0x50, 0xba, 0x04, 0x3e, 0x22, 0x34, 0xe7, 0xbd, 
0xfc, 0xbb, 0xa7, 0xbd, 0x42, 0x61, 0xba, 0xbd, 0xdb, 0x70, 0xc8, 0xbd, 
0x84, 0xd3, 0x37, 0xbd, 0xaa, 0x20, 0x95, 0x3d, 0x9c, 0x78, 0xb1, 0xbd, 
0xa7, 0x67, 0x0b, 0x3e, 0x30, 0x48, 0xd2, 0x3d, 0xd7, 0x24, 0xa8, 0x3d, 
0xb8, 0x6b, 0x6a, 0xbe, 0xa4, 0x93, 0xd2, 0xbd, 0x53, 0x12, 0x94, 0xbc, 
0x9f, 0x76, 0x6c, 0xbe, 0xbb, 0xa5, 0x05, 0xbd, 0xd0, 0x96, 0x17, 0x3e, 
0xdd, 0xdd, 0xbd, 0xbd, 0x8d, 0x16, 0x28, 0xbe, 0xe0, 0xb3, 0xd6, 0xbd, 
0x89, 0xf8, 0xc1, 0xbd, 0x81, 0x51, 0x9d, 0xbd, 0x91, 0xa0, 0xb3, 0xbc, 
0xfa, 0x06, 0x00, 0x3e, 0x79, 0xc2, 0x8b, 0xbc, 0xba, 0xec, 0x15, 0xbe, 
0xe0, 0xd3, 0x01, 0x3e, 0x65, 0x93, 0x1e, 0xbd, 0x01, 0x44, 0x69, 0xbe, 
0xc1, 0x16, 0x94, 0xbe, 0xad, 0x05, 0x00, 0x3e, 0x24, 0x5a, 0xbd, 0xbd, 
0x1e, 0xe1, 0x3b, 0xbe, 0x69, 0x05, 0x31, 0x3d, 0xf2, 0x71, 0x27, 0xbe, 
0x0e, 0x8d, 0x77, 0x3d, 0xb6, 0x64, 0x14, 0xbe, 0x78, 0x1c, 0x44, 0xbe, 
0xc7, 0x99, 0x84, 0xbd, 0x7b, 0x29, 0x96, 0x3d, 0x94, 0x77, 0xff, 0xbc, 
0x61, 0xe8, 0x90, 0x3c, 0x62, 0x96, 0x3a, 0xbe, 0x46, 0x71, 0x80, 0xbd, 
0xdd, 0xc3, 0x28, 0xbe, 0xa4, 0x46, 0xa5, 0xbd, 0x6f, 0x3e, 0xfc, 0xbc, 
0xc9, 0x82, 0x46, 0x3e, 0xfe, 0x17, 0x29, 0x3e, 0xda, 0x5f, 0x5b, 0x3e, 
0x0c, 0x9a, 0x35, 0x3e, 0x4d, 0x24, 0x6b, 0xbe, 0xd1, 0xcc, 0x3e, 0xbe, 
0x2b, 0x2b, 0xe8, 0xbd, 0xaf, 0xfd, 0xef, 0xbd, 0x4a, 0x45, 0x07, 0x3e, 
0xf7, 0x34, 0x73, 0x3e, 0xe1, 0xbc, 0x4e, 0xbc, 0x39, 0xb9, 0x71, 0x3e, 
0xc1, 0xe9, 0x54, 0xbd, 0xe5, 0xba, 0x35, 0x3b, 0xfc, 0xe2, 0x8b, 0x3d, 
0x12, 0x3d, 0x0c, 0x3e, 0x52, 0x9f, 0xe7, 0x3b, 0xc7, 0xc9, 0x04, 0x3e, 
0xaa, 0x50, 0xbc, 0x3e, 0x5e, 0xcb, 0x87, 0xbd, 0xa6, 0x03, 0x23, 0xbd, 
0xb0, 0x12, 0x45, 0xbd, 0x89, 0xd1, 0x4a, 0x3e, 0xc8, 0xcb, 0x41, 0xbe, 
0x0b, 0x30, 0xa9, 0xbd, 0xf7, 0x50, 0x25, 0xbe, 0x50, 0xa7, 0xd0, 0x3d, 
0x25, 0xa2, 0xed, 0x3d, 0x23, 0xc7, 0xc1, 0xbd, 0x85, 0x91, 0x79, 0x3e, 
0xc0, 0xf7, 0x46, 0x38, 0x43, 0x7c, 0x5c, 0x3e, 0x6b, 0x10, 0x14, 0x3e, 
0x2f, 0x6c, 0x85, 0x3e, 0x84, 0xe5, 0x3b, 0x3e, 0x1c, 0x8c, 0xaa, 0xbd, 
0xbc, 0xef, 0xb6, 0xbb, 0xc4, 0x0c, 0x12, 0x3e, 0x3f, 0x55, 0x48, 0x3e, 
0x4a, 0x5c, 0xa7, 0x3c, 0x01, 0x9b, 0xf4, 0xbd, 0x29, 0xe7, 0xda, 0xbb, 
0xe9, 0xf1, 0x5c, 0xbd, 0x96, 0x67, 0xb4, 0x3d, 0x9b, 0x2c, 0xbd, 0x3c, 
0x5f, 0xeb, 0x21, 0x3e, 0x66, 0x0e, 0x24, 0x3e, 0xa9, 0xea, 0x94, 0xbc, 
0xa2, 0xf6, 0x0f, 0xbb, 0xb4, 0xb1, 0x30, 0xbe, 0xbe, 0xc2, 0x3c, 0x3e, 
0xc6, 0xbb, 0x7d, 0x3d, 0x4b, 0xc0, 0x46, 0x3b, 0x8f, 0xb7, 0x0a, 0x3e, 
0xe8, 0x7d, 0x03, 0xbe, 0xad, 0x0a, 0xc0, 0xba, 0x22, 0x81, 0xd5, 0xbd, 
0x64, 0x6d, 0x13, 0xbe, 0x99, 0xf2, 0x99, 0xbc, 0x3f, 0x4e, 0xc6, 0xbd, 
0x40, 0x92, 0xd3, 0x3d, 0xb0, 0x5d, 0xc2, 0x3d, 0xa4, 0xc5, 0xdf, 0x3d, 
0x75, 0x1a, 0x8c, 0x3d, 0x00, 0x89, 0x3d, 0xbe, 0xc9, 0x1a, 0xc5, 0x3d, 
0x9b, 0x19, 0xed, 0x3c, 0xf5, 0x13, 0x7d, 0x3e, 0x26, 0x0a, 0x66, 0xbc, 
0x52, 0x5e, 0x36, 0x3e, 0x83, 0xc8, 0x2b, 0x3e, 0x16, 0x8f, 0x5d, 0x3e, 
0xbd, 0x6c, 0x02, 0xbd, 0xf2, 0x10, 0x95, 0x3d, 0x31, 0xe7, 0x59, 0xbe, 
0x68, 0xa8, 0x07, 0xbe, 0xc1, 0x38, 0x10, 0xbe, 0x82, 0xfb, 0xbd, 0x3c, 
0x95, 0x61, 0x22, 0x3e, 0xc0, 0xb7, 0x8f, 0x3d, 0xb1, 0xfd, 0x95, 0xbe, 
0x8c, 0xd5, 0x5c, 0x3e, 0xf8, 0x47, 0xdc, 0x3d, 0xe8, 0x6f, 0xde, 0x3d, 
0x3c, 0xa9, 0xa7, 0x3d, 0x94, 0x86, 0x07, 0xbd, 0xf3, 0x61, 0x8f, 0x3d, 
0x6a, 0xa6, 0xe2, 0x39, 0xa4, 0x5b, 0xa2, 0xbc, 0xea, 0xb2, 0x09, 0x3e, 
0x34, 0x70, 0x79, 0xbd, 0xac, 0x9e, 0xb3, 0xbb, 0x07, 0x27, 0x23, 0xbe, 
0xda, 0xcf, 0x08, 0x3e, 0xa6, 0x46, 0xcc, 0x3d, 0x01, 0xa5, 0xeb, 0x3d, 
0xb2, 0xa8, 0x27, 0x3e, 0x77, 0xe5, 0x31, 0xbe, 0xdb, 0x1e, 0x08, 0x3d, 
0x8a, 0xc1, 0x7f, 0x3d, 0x5d, 0x89, 0x2d, 0xbe, 0x76, 0x48, 0x09, 0xbd, 
0x3c, 0x49, 0xd2, 0x3d, 0x69, 0x2d, 0x1a, 0xbe, 0x8b, 0xc7, 0xdc, 0x3d, 
0xb7, 0xf0, 0x4a, 0x3b, 0xd0, 0xff, 0x13, 0x3e, 0x7f, 0xc3, 0x27, 0xbe, 
0x09, 0x06, 0x61, 0xbe, 0x48, 0x6b, 0xa1, 0xbd, 0x6b, 0xf1, 0x81, 0xbd, 
0x1b, 0xb7, 0x82, 0xbe, 0x4d, 0x5d, 0xca, 0xbd, 0x01, 0x21, 0x14, 0x3c, 
0xba, 0xfb, 0x2b, 0xbd, 0x3a, 0x7f, 0xb5, 0x3e, 0x3b, 0x26, 0xa8, 0x3d, 
0x7e, 0xa3, 0xcf, 0x3d, 0x75, 0xd7, 0xcb, 0xbd, 0x2c, 0x63, 0xb7, 0xbd, 
0x64, 0x46, 0x8a, 0xbd, 0xc6, 0xfc, 0xdf, 0x3d, 0x2a, 0x5b, 0x01, 0xbe, 
0x50, 0x4c, 0x26, 0xbe, 0x3e, 0xc2, 0x26, 0xbd, 0xc6, 0xba, 0x80, 0x3e, 
0xe4, 0xc5, 0x69, 0xbe, 0xd3, 0x9a, 0xfa, 0xbd, 0x29, 0x05, 0x80, 0x3d, 
0x23, 0x58, 0xf2, 0xbd, 0x4c, 0xd0, 0xe5, 0x3b, 0x0f, 0xde, 0x57, 0x3e, 
0xa1, 0x90, 0xdb, 0x3d, 0xae, 0xb4, 0x56, 0xbc, 0x98, 0x86, 0x57, 0xbc, 
0x01, 0x5b, 0x65, 0x3e, 0x5b, 0x2f, 0x40, 0x3e, 0xc9, 0x29, 0x36, 0x3d, 
0xcc, 0x26, 0x5b, 0xbd, 0x4d, 0xe6, 0x30, 0xbd, 0x9d, 0xcc, 0xf3, 0xbd, 
0x6b, 0xa8, 0xdd, 0x3d, 0xa7, 0xb5, 0x2a, 0xbc, 0x7e, 0x74, 0x6e, 0xbd, 
0x66, 0xd2, 0x87, 0xbd, 0xcf, 0xfa, 0x9f, 0x3d, 0x13, 0xaf, 0x0c, 0xbd, 
0xfe, 0x1b, 0x3e, 0xbd, 0xe5, 0x18, 0x84, 0x3e, 0x3b, 0x59, 0x17, 0x3e, 
0x10, 0xae, 0x00, 0x3e, 0x5c, 0x7e, 0xd9, 0x3d, 0xd7, 0xda, 0xb9, 0x3c, 
0xed, 0x9a, 0xeb, 0xbc, 0xa2, 0xbb, 0x3d, 0x3d, 0xf5, 0x21, 0x08, 0x3e, 
0x26, 0xc4, 0x49, 0x3e, 0x94, 0x38, 0x1e, 0x3d, 0x00, 0x2f, 0x7c, 0xbd, 
0x26, 0xc9, 0x8d, 0x3d, 0xe6, 0x40, 0x20, 0xbe, 0x0e, 0xf1, 0xbb, 0x3d, 
0xde, 0x1e, 0xb0, 0xbd, 0x6b, 0xcc, 0x69, 0xbc, 0xe4, 0x39, 0x8a, 0x3e, 
0xb6, 0xc7, 0x9b, 0x3d, 0x25, 0x17, 0x24, 0x3e, 0x48, 0x19, 0x05, 0x3e, 
0x29, 0x03, 0xfd, 0x3c, 0xda, 0x72, 0x62, 0xbe, 0x2f, 0x12, 0x41, 0x3d, 
0x78, 0x0b, 0x07, 0xbe, 0xee, 0xaf, 0x5e, 0x3d, 0xc9, 0x8d, 0xfc, 0x3d, 
0x94, 0x73, 0x96, 0x3d, 0x63, 0x98, 0x96, 0xbd, 0xe7, 0x86, 0x0f, 0xbc, 
0x10, 0x70, 0x6e, 0xbd, 0xd2, 0xcd, 0x9f, 0x3d, 0x79, 0xfd, 0x02, 0xbe, 
0x02, 0x6a, 0xea, 0xbd, 0x41, 0xed, 0x0f, 0xbc, 0x3e, 0xc2, 0x36, 0x3d, 
0x91, 0xa3, 0xa5, 0xbd, 0x49, 0x5c, 0x28, 0xb9, 0x49, 0x08, 0xcd, 0x3c, 
0x57, 0x82, 0x3b, 0xbe, 0x63, 0x25, 0x8c, 0xbb, 0x73, 0x55, 0x0d, 0xbe, 
0xbb, 0x51, 0x17, 0xbd, 0x0f, 0x53, 0xc5, 0x3c, 0xa6, 0x7d, 0x07, 0x3d, 
0xd2, 0x1f, 0x62, 0xbe, 0x56, 0xb5, 0x60, 0xbd, 0xf0, 0xd2, 0x51, 0xbe, 
0x4b, 0x2c, 0xbe, 0x3d, 0xb4, 0xc8, 0x17, 0xbe, 0x49, 0x8e, 0xbd, 0x3d, 
0xec, 0x59, 0x94, 0x3d, 0x37, 0x03, 0x9d, 0xbd, 0x56, 0x1c, 0x03, 0x3e, 
0x77, 0xd9, 0xe6, 0xbd, 0xf3, 0xdd, 0xa1, 0xbd, 0x20, 0x66, 0xfb, 0xbd, 
0xc3, 0xbd, 0xfe, 0x3c, 0xef, 0x68, 0xb4, 0x3d, 0x84, 0xd8, 0xb3, 0xbc, 
0x91, 0x5c, 0x99, 0xbd, 0xc0, 0x6e, 0xdb, 0xbd, 0x2e, 0x5b, 0x6d, 0x3d, 
0x49, 0x9e, 0xb0, 0xbc, 0x15, 0x8c, 0x4f, 0x3e, 0x27, 0xbe, 0x76, 0x3e, 
0x34, 0xfb, 0x89, 0x3d, 0xf8, 0x46, 0x22, 0xbe, 0x53, 0xd0, 0x0c, 0xbe, 
0xb6, 0xcf, 0x05, 0xbe, 0x1d, 0x67, 0xa7, 0xbc, 0x02, 0x8a, 0xd7, 0x3c, 
0x4a, 0x93, 0x79, 0x3c, 0xe0, 0x60, 0xe1, 0xbd, 0x46, 0x16, 0x13, 0xbe, 
0x13, 0x67, 0x2c, 0x3e, 0xe1, 0xd3, 0x47, 0xbe, 0x19, 0xc7, 0x14, 0xbe, 
0x63, 0x39, 0x47, 0x3d, 0x38, 0x52, 0xe2, 0xbd, 0x56, 0xaf, 0xd6, 0xbc, 
0xfa, 0x05, 0xb5, 0xbc, 0x4b, 0xed, 0x18, 0x3d, 0x07, 0xec, 0x17, 0x3e, 
0x83, 0x0d, 0x0e, 0x3e, 0x8c, 0x64, 0xc0, 0xbd, 0x34, 0xe8, 0xd5, 0xbd, 
0xd0, 0xa2, 0x27, 0xbe, 0xa7, 0x83, 0xa7, 0xbd, 0x0c, 0xce, 0x42, 0x3e, 
0xd6, 0x6d, 0x7b, 0x3e, 0x27, 0x16, 0x44, 0x3e, 0xd5, 0xf0, 0x5a, 0xbd, 
0xfd, 0xcf, 0x1d, 0x3e, 0xcf, 0xb9, 0xcb, 0xbd, 0x1b, 0x39, 0x3f, 0x3d, 
0xa6, 0xd7, 0xce, 0x3d, 0x11, 0xdf, 0x1e, 0x3c, 0x47, 0xed, 0x6c, 0xbd, 
0x6c, 0x36, 0xa4, 0xbd, 0x67, 0xf2, 0x0a, 0x3d, 0xff, 0x0f, 0xc2, 0x3d, 
0xba, 0x3c, 0x1c, 0xbd, 0xc3, 0x2b, 0xab, 0xbd, 0x27, 0x64, 0x61, 0x3d, 
0xe8, 0x81, 0x36, 0x3e, 0x3b, 0x4e, 0xdf, 0xbd, 0x83, 0xc9, 0xd6, 0x3d, 
0xa5, 0x8d, 0x2c, 0x3e, 0x4e, 0xbc, 0x86, 0xbb, 0x49, 0xca, 0x39, 0xbd, 
0x71, 0x4e, 0x9e, 0xbc, 0x88, 0xfc, 0xb5, 0x3d, 0xcc, 0xd8, 0x1f, 0xbe, 
0xdd, 0xf3, 0x87, 0xbc, 0x18, 0x64, 0x15, 0xbd, 0x46, 0x8d, 0x69, 0xbc, 
0x6d, 0xc3, 0x1a, 0xbd, 0x11, 0x99, 0xce, 0x3c, 0xe9, 0x92, 0x9a, 0xbd, 
0xe8, 0xb0, 0x15, 0x3e, 0xa1, 0xca, 0xd8, 0x3d, 0x75, 0xb2, 0xac, 0xbd, 
0x4e, 0x84, 0xb6, 0xbd, 0xf4, 0x26, 0xd9, 0x3d, 0xa8, 0x21, 0x94, 0xbd, 
0x02, 0xc8, 0x14, 0x3e, 0x64, 0x01, 0x26, 0xbe, 0xce, 0xff, 0xa7, 0xbd, 
0xac, 0xa3, 0xcc, 0xbc, 0xad, 0x81, 0x43, 0xbe, 0x78, 0x42, 0x87, 0x3d, 
0xd1, 0xc3, 0x24, 0xbc, 0xa5, 0x0c, 0xee, 0xbc, 0x75, 0x6a, 0x8d, 0x3c, 
0x44, 0xbf, 0x1c, 0xbd, 0xda, 0xa5, 0x4d, 0xbd, 0xb0, 0x0b, 0xed, 0x3b, 
0xd7, 0x1e, 0x4d, 0x3e, 0xdf, 0xcd, 0x04, 0x3e, 0x04, 0x79, 0xf7, 0xbd, 
0x90, 0x3a, 0x0c, 0xbe, 0x6d, 0x4b, 0x5e, 0xbe, 0xab, 0x26, 0x17, 0x3e, 
0xb2, 0xb4, 0x5d, 0x3e, 0x47, 0x59, 0xa3, 0xbd, 0xc8, 0xee, 0x10, 0xbe, 
0x72, 0x32, 0x16, 0x3e, 0x92, 0xd0, 0xf3, 0x3d, 0x54, 0xab, 0x81, 0xbd, 
0x57, 0xd3, 0x0f, 0xbe, 0x7c, 0x93, 0x06, 0xbe, 0xcd, 0x77, 0xcc, 0x3c, 
0x59, 0x63, 0xc0, 0xbd, 0xd6, 0xa5, 0x97, 0xbe, 0x41, 0xa5, 0xb2, 0x3d, 
0xd2, 0x25, 0xa5, 0x3d, 0x5e, 0xb8, 0xb1, 0x3d, 0x3f, 0x31, 0x8d, 0x3d, 
0x0c, 0xae, 0x2f, 0xbd, 0x18, 0xe5, 0x69, 0xbe, 0x6e, 0x62, 0x79, 0xbe, 
0xc8, 0x94, 0x44, 0x3d, 0x5f, 0x6c, 0x20, 0xbe, 0xca, 0x85, 0x0b, 0x3e, 
0x6a, 0x1c, 0x31, 0xbd, 0x02, 0x5b, 0xda, 0xbd, 0x8a, 0xe7, 0x2d, 0xbe, 
0x53, 0xbe, 0x04, 0xbe, 0x84, 0xc9, 0x5d, 0x3d, 0x81, 0x22, 0xfc, 0x3d, 
0x01, 0x71, 0xa8, 0x3d, 0x92, 0x42, 0x1d, 0x3c, 0xd9, 0xf4, 0xc3, 0x3d, 
0xfa, 0x7a, 0xc5, 0xbd, 0x0f, 0x6e, 0x41, 0xbe, 0x48, 0x4d, 0x44, 0xbe, 
0xcf, 0x6f, 0x56, 0x3d, 0x84, 0x75, 0x99, 0xbd, 0x7e, 0x6c, 0x99, 0x3d, 
0xa5, 0xee, 0x49, 0xbe, 0xc1, 0xf9, 0xe8, 0x3d, 0x9e, 0x5e, 0xb0, 0xbd, 
0x18, 0x9d, 0xfd, 0xbb, 0xc1, 0x83, 0xd9, 0xbd, 0x36, 0xdb, 0x4a, 0x3e, 
0xe2, 0xd0, 0x9b, 0x3c, 0x16, 0x52, 0x1c, 0x3e, 0x23, 0x06, 0x94, 0x3d, 
0x7a, 0xbb, 0xf8, 0x3d, 0x81, 0x52, 0xc2, 0xbd, 0xf8, 0xe8, 0xec, 0x3d, 
0x7d, 0x49, 0x32, 0xbe, 0x29, 0x71, 0x93, 0x3d, 0xff, 0x03, 0x46, 0xbe, 
0xd9, 0xb1, 0x12, 0xbd, 0xd9, 0x99, 0xcd, 0xbd, 0xdc, 0xeb, 0x2c, 0xbd, 
0x17, 0x19, 0xfd, 0xbc, 0xce, 0xc9, 0x21, 0xbe, 0xdb, 0x2c, 0x80, 0x3e, 
0xbc, 0xff, 0x7d, 0x3d, 0x9f, 0x2a, 0x47, 0xbe, 0xf2, 0x00, 0xcd, 0x3d, 
0x72, 0xd7, 0x56, 0x3d, 0x0c, 0x16, 0x87, 0xbd, 0x44, 0xec, 0xf7, 0xbc, 
0x99, 0xed, 0xc1, 0xbd, 0xbc, 0xe8, 0xf7, 0xbc, 0x51, 0x54, 0xe5, 0x3c, 
0xd9, 0x72, 0x93, 0xbd, 0x13, 0xd2, 0x93, 0x3d, 0x9f, 0xd3, 0x17, 0x3e, 
0xfd, 0xd0, 0xb7, 0x3d, 0x22, 0x35, 0x02, 0xbd, 0x8a, 0xf4, 0x07, 0x3e, 
0x75, 0x8f, 0x25, 0xbe, 0x22, 0x85, 0x01, 0xbe, 0xe3, 0xec, 0x30, 0xbe, 
0xe0, 0xda, 0x5b, 0xbe, 0x17, 0x65, 0x86, 0xbd, 0xcd, 0x0d, 0x02, 0xbb, 
0x26, 0x99, 0x0d, 0xbe, 0xa8, 0x42, 0xe7, 0x3d, 0x90, 0xe1, 0xe7, 0xbd, 
0xf8, 0x56, 0x6e, 0xbe, 0xb3, 0xac, 0xa3, 0xbd, 0x1d, 0x8b, 0x9c, 0xbb, 
0x8f, 0xc2, 0x50, 0xbe, 0x32, 0x9e, 0x5d, 0xbc, 0xa5, 0xa6, 0x16, 0xbe, 
0x44, 0x1b, 0x81, 0xbd, 0x04, 0x90, 0x11, 0x3d, 0x80, 0x37, 0xa4, 0x3c, 
0x74, 0x8c, 0x1d, 0x3e, 0x63, 0x22, 0x09, 0x3e, 0x32, 0x6b, 0xe7, 0x3d, 
0x5a, 0x19, 0x08, 0x3e, 0x7c, 0xc1, 0xb8, 0xbd, 0x02, 0xaa, 0x86, 0xbe, 
0x67, 0x2a, 0xad, 0x3b, 0x71, 0x9f, 0x17, 0xbe, 0x65, 0xa0, 0x3a, 0x3e, 
0xed, 0xc3, 0xa3, 0xbc, 0x08, 0x2e, 0xcf, 0x3d, 0x00, 0xf8, 0x49, 0xbe, 
0x0b, 0xf3, 0xcc, 0x3d, 0x8b, 0x9f, 0x33, 0x3d, 0x66, 0x97, 0x94, 0xbb, 
0xb6, 0x6e, 0xe8, 0xbd, 0xe5, 0x1c, 0x8c, 0xbe, 0x9c, 0xc3, 0x17, 0xbe, 
0x46, 0x74, 0x13, 0xbc, 0x9f, 0x3e, 0x81, 0xbd, 0x80, 0x97, 0xd1, 0xbd, 
0x77, 0xb3, 0xd3, 0xbc, 0x56, 0x56, 0x4d, 0xbe, 0x47, 0x93, 0x9f, 0xbd, 
0x23, 0x86, 0x16, 0xbc, 0x8d, 0xc3, 0xd5, 0x3d, 0xc4, 0xa7, 0x46, 0xbe, 
0x26, 0xcb, 0xb6, 0x3d, 0xa5, 0x3a, 0x85, 0x3d, 0xf7, 0xbd, 0xc9, 0xbd, 
0x56, 0xc9, 0x5f, 0xbd, 0x84, 0x2b, 0xad, 0xbd, 0x9a, 0x42, 0x9e, 0xbb, 
0x2e, 0x7b, 0xb2, 0xbc, 0x86, 0x79, 0x45, 0xbd, 0x42, 0x90, 0x82, 0x3d, 
0x56, 0xbd, 0x08, 0xbe, 0x4c, 0x29, 0x38, 0xbe, 0x36, 0xb9, 0xd3, 0xbd, 
0xc5, 0xef, 0x75, 0x3d, 0x1a, 0xec, 0x1b, 0x3e, 0xf9, 0xdb, 0x73, 0x3d, 
0x76, 0x08, 0x36, 0xbe, 0x80, 0x7b, 0x04, 0xbd, 0x6d, 0x6e, 0xee, 0xbd, 
0x06, 0x4c, 0x00, 0xbe, 0xe2, 0xe8, 0x7c, 0xbd, 0xa0, 0xa2, 0xcd, 0xbc, 
0x07, 0x30, 0x47, 0x3d, 0x57, 0x9b, 0x21, 0xbe, 0x54, 0x2c, 0x4d, 0x3c, 
0x2d, 0x9f, 0xe6, 0x3d, 0x48, 0x4c, 0xf9, 0xbd, 0x46, 0xff, 0xef, 0x3d, 
0x48, 0xe0, 0xa2, 0xbe, 0x78, 0x63, 0xe3, 0x3c, 0x1a, 0xa5, 0x85, 0x3e, 
0xbd, 0x16, 0x27, 0xbd, 0xb4, 0x85, 0xc4, 0xbd, 0x6c, 0x05, 0xda, 0x3d, 
0xec, 0xd4, 0x58, 0xbd, 0x6f, 0x57, 0x1a, 0xbe, 0x2f, 0xb0, 0x2b, 0xbe, 
0xea, 0xee, 0x30, 0x3e, 0xb3, 0x7e, 0x00, 0x3e, 0x30, 0x67, 0x3a, 0xbe, 
0x0f, 0xdf, 0x16, 0x3e, 0x2e, 0x7c, 0x8c, 0x3d, 0x48, 0x6e, 0xe0, 0x3a, 
0x75, 0x76, 0x32, 0x3d, 0x4e, 0xfa, 0x54, 0x3e, 0x09, 0x84, 0xe3, 0x3e, 
0x5c, 0x4c, 0x09, 0x3c, 0xae, 0xed, 0x3b, 0xbe, 0x51, 0x80, 0x78, 0xbe, 
0x1b, 0xa8, 0x5b, 0x3c, 0xa6, 0xd0, 0xcc, 0x3d, 0x6c, 0xeb, 0x6c, 0x3d, 
0xdb, 0xad, 0xa2, 0xbd, 0x01, 0xb6, 0x89, 0xbd, 0xf7, 0x28, 0x9f, 0x3e, 
0x99, 0xde, 0x86, 0x3e, 0xe7, 0xc4, 0x33, 0xbc, 0x6c, 0x5b, 0x7e, 0xbd, 
0x36, 0xf0, 0xa5, 0xbd, 0x7b, 0xb4, 0xbc, 0xbc, 0x5f, 0x8d, 0x8e, 0xbd, 
0xd1, 0x71, 0xd9, 0x3d, 0x4e, 0x12, 0x34, 0xbe, 0x43, 0x77, 0xe0, 0x3c, 
0x1e, 0x13, 0x7e, 0xbd, 0xa0, 0x22, 0x4a, 0xbe, 0x8c, 0x3b, 0x3b, 0x3d, 
0x90, 0x50, 0x76, 0x3d, 0x1b, 0x04, 0x0b, 0x3d, 0x55, 0xd8, 0x0f, 0xbe, 
0xc9, 0x1d, 0x02, 0xbd, 0x68, 0x21, 0x72, 0x3d, 0x54, 0x10, 0x57, 0xbd, 
0x6b, 0x3c, 0x81, 0x3c, 0x57, 0x0d, 0xc3, 0xbd, 0xda, 0xbd, 0x5e, 0x3d, 
0x9d, 0x7d, 0x15, 0xbe, 0x42, 0x1e, 0x42, 0x3e, 0x46, 0x6f, 0x08, 0x3e, 
0x0a, 0xea, 0x2b, 0x3e, 0x6d, 0x20, 0x66, 0x3d, 0xc4, 0x56, 0x39, 0xbe, 
0xf1, 0x1b, 0xbc, 0xbc, 0x14, 0x58, 0xbf, 0x3c, 0xc5, 0x65, 0xfa, 0xbd, 
0x94, 0xd8, 0x4c, 0x3e, 0x91, 0x2a, 0x19, 0xbc, 0x1b, 0x93, 0x4b, 0xbe, 
0xd0, 0xdd, 0x8e, 0x3c, 0xbb, 0x71, 0x8b, 0x3d, 0x3d, 0x95, 0xef, 0x3d, 
0x7a, 0x49, 0x0b, 0x3e, 0x79, 0xdf, 0xb9, 0x3d, 0x44, 0xb5, 0x80, 0x3e, 
0xac, 0x19, 0xd8, 0x3d, 0x66, 0xde, 0xb1, 0xbd, 0xef, 0xe0, 0x5b, 0x3d, 
0x01, 0xb1, 0x9f, 0xbd, 0xb0, 0x92, 0xfd, 0xbd, 0xa6, 0x26, 0xb1, 0x3d, 
0x07, 0xca, 0x15, 0xbe, 0x37, 0x05, 0x5c, 0xbe, 0x63, 0xc8, 0xac, 0x3e, 
0x90, 0xf1, 0x80, 0x3d, 0x9c, 0x54, 0x92, 0xbd, 0xca, 0xb0, 0x1e, 0xbb, 
0x10, 0x53, 0x00, 0x3e, 0xe2, 0x63, 0x4d, 0x3c, 0x6e, 0x8b, 0xbe, 0xbd, 
0x65, 0xf4, 0x74, 0xbd, 0x7a, 0xb7, 0x0f, 0xbc, 0x4a, 0x2e, 0x39, 0xbe, 
0x9c, 0xbc, 0x02, 0x3e, 0x2b, 0x17, 0x14, 0xbe, 0x02, 0x52, 0x0c, 0xbe, 
0x87, 0x91, 0x03, 0x3d, 0xd9, 0x9e, 0x59, 0x3e, 0x6f, 0x25, 0xe8, 0xbb, 
0x20, 0xe7, 0xd6, 0xba, 0x0d, 0xed, 0x97, 0x3d, 0x1f, 0xfe, 0x56, 0xbd, 
0x0f, 0x9b, 0x46, 0x3e, 0x1a, 0xdb, 0x04, 0x3e, 0xa8, 0xf3, 0x94, 0xbd, 
0x73, 0x25, 0xc7, 0xbd, 0x1d, 0x27, 0x08, 0x3d, 0xd1, 0x71, 0x2e, 0x3e, 
0x19, 0xe3, 0x87, 0x3c, 0x9e, 0x2b, 0x01, 0xbe, 0xb8, 0x1f, 0xa0, 0x3d, 
0x78, 0xc0, 0x54, 0x3e, 0x16, 0x0e, 0x33, 0x3d, 0xb7, 0xcd, 0x8b, 0xbe, 
0xe6, 0x05, 0x61, 0x3e, 0x8d, 0xca, 0x9e, 0xbc, 0x26, 0x5d, 0x3f, 0xbd, 
0x7b, 0x46, 0xde, 0xbd, 0xa2, 0xa5, 0x2e, 0x3e, 0xf9, 0x54, 0x9e, 0xbd, 
0xfd, 0xbb, 0xe2, 0xbd, 0xf6, 0xde, 0x97, 0xbd, 0x82, 0x3a, 0x88, 0x3e, 
0xa5, 0x41, 0x92, 0xbd, 0x21, 0x22, 0x1c, 0xbd, 0x02, 0x7d, 0x96, 0x3d, 
0x62, 0x5a, 0x32, 0xbe, 0xbb, 0xd0, 0x33, 0xbe, 0xc4, 0xee, 0xf0, 0xbd, 
0x4f, 0xa7, 0xd8, 0xbd, 0x97, 0xc6, 0x21, 0x3e, 0x81, 0x2d, 0x00, 0x3e, 
0xfb, 0x69, 0x90, 0x3e, 0x65, 0xe4, 0x0d, 0xbe, 0xa5, 0x5e, 0xe9, 0xbd, 
0x56, 0xa2, 0x2b, 0x3d, 0xa8, 0xd5, 0xf3, 0x3a, 0x48, 0xdb, 0x77, 0xbd, 
0xae, 0x25, 0x95, 0x3d, 0x0a, 0xc9, 0x00, 0x3e, 0xaa, 0x44, 0x12, 0xbe, 
0x64, 0xf6, 0xe0, 0xbd, 0xb9, 0x2a, 0x26, 0x3e, 0x83, 0x15, 0xc2, 0xbd, 
0xba, 0x86, 0xb9, 0x3d, 0xd9, 0x6b, 0xa9, 0x3d, 0x86, 0x36, 0xeb, 0xbb, 
0x4c, 0x6e, 0x31, 0x3e, 0x17, 0xed, 0xa4, 0xbd, 0xc5, 0xe8, 0x5c, 0x3d, 
0x51, 0x2d, 0x34, 0x3e, 0x1f, 0x51, 0x7e, 0x3e, 0x0b, 0x51, 0x0c, 0x3d, 
0x66, 0xb1, 0x42, 0xbd, 0x84, 0x65, 0x32, 0xbe, 0xee, 0x20, 0xb7, 0x3e, 
0x01, 0xfb, 0x5e, 0x3e, 0xb4, 0xe8, 0x99, 0x3c, 0xd5, 0x63, 0xf2, 0xbc, 
0xbf, 0x1f, 0xb6, 0x3d, 0xd1, 0x44, 0xad, 0x3d, 0x9c, 0x23, 0x93, 0xbd, 
0xb9, 0xa9, 0x6b, 0x3e, 0xac, 0x3a, 0xf8, 0xbd, 0x5c, 0xd6, 0x4f, 0x3d, 
0x4c, 0x76, 0x53, 0xbd, 0x7b, 0x1f, 0x0f, 0xbe, 0xae, 0x5e, 0xe3, 0xbc, 
0x46, 0x65, 0x4f, 0xbe, 0x34, 0xed, 0x3a, 0xbe, 0xf0, 0xad, 0x0c, 0x3e, 
0x14, 0x4a, 0xe7, 0x3d, 0x2a, 0xb9, 0x81, 0xbc, 0x1d, 0x92, 0x8a, 0xbc, 
0xf9, 0xe0, 0x61, 0xbe, 0x7a, 0x64, 0xcd, 0xbd, 0x8c, 0x3f, 0x23, 0x3e, 
0xa9, 0xa4, 0xdc, 0x3d, 0x25, 0x54, 0xd7, 0xbd, 0x47, 0x3f, 0x1d, 0x3e, 
0x60, 0xfd, 0x9f, 0x3c, 0xdf, 0x95, 0x58, 0x3d, 0x6d, 0x99, 0xc4, 0xbd, 
0x33, 0x9f, 0x16, 0x3b, 0x42, 0xa9, 0x12, 0x3d, 0x52, 0x3c, 0x8c, 0xbd, 
0x1e, 0x5a, 0xaa, 0x3d, 0x81, 0x00, 0x3b, 0xbd, 0xf8, 0x52, 0x1d, 0x3e, 
0x33, 0x9c, 0x06, 0x3e, 0x73, 0x98, 0xe8, 0x3c, 0x90, 0x36, 0xf7, 0x3d, 
0x88, 0xa5, 0x22, 0xbe, 0xe3, 0x78, 0xf3, 0x3d, 0xac, 0x70, 0xf6, 0xbd, 
0x78, 0x62, 0x12, 0xbd, 0x4f, 0xf5, 0xb3, 0xbd, 0xfd, 0xe7, 0x4a, 0xbe, 
0xbd, 0x3d, 0xbf, 0x3c, 0x8e, 0xeb, 0x00, 0x3e, 0xa0, 0x05, 0xba, 0xbd, 
0xb5, 0x9b, 0x88, 0x3d, 0xf4, 0x64, 0x67, 0x3d, 0xca, 0x90, 0xc1, 0x3e, 
0xb8, 0x34, 0xb9, 0x3d, 0x32, 0x9d, 0x20, 0xbe, 0x07, 0x33, 0x09, 0xbe, 
0x9b, 0x3f, 0x73, 0x3d, 0x87, 0xfa, 0xb8, 0xbd, 0x00, 0xb0, 0x8a, 0xbe, 
0x41, 0xca, 0x37, 0x3e, 0x70, 0x11, 0x4d, 0xbe, 0xdf, 0x20, 0x41, 0x3d, 
0x29, 0x54, 0x91, 0x3d, 0xda, 0x9a, 0xe4, 0xbd, 0x15, 0x3f, 0x4c, 0xbe, 
0x03, 0x78, 0x0e, 0xbe, 0x2d, 0x90, 0xda, 0x3d, 0x68, 0x20, 0xb4, 0x3d, 
0xb2, 0x41, 0xfa, 0xbd, 0x78, 0x4a, 0xf0, 0xbd, 0xa0, 0xd1, 0x4a, 0xbd, 
0x1f, 0xa7, 0x90, 0xbd, 0x1b, 0xa9, 0x62, 0xbe, 0x7f, 0x96, 0xad, 0xbd, 
0xe3, 0xba, 0xca, 0xbd, 0x93, 0x2c, 0xef, 0x3c, 0xe2, 0xc9, 0x7a, 0x3e, 
0xc7, 0x0d, 0x23, 0x3e, 0x2b, 0xf1, 0x1e, 0xbe, 0x7c, 0xd2, 0xc5, 0xbd, 
0x39, 0xf3, 0x3d, 0x3d, 0xf6, 0xf4, 0xee, 0x3d, 0xcd, 0xd8, 0x12, 0x3e, 
0x3b, 0x76, 0xc5, 0x3d, 0x8c, 0x6b, 0x12, 0x3e, 0xc3, 0xca, 0x20, 0xbe, 
0x06, 0x32, 0xa5, 0xbd, 0x42, 0x0b, 0x9a, 0xbd, 0x70, 0x57, 0xc2, 0x3d, 
0x5c, 0xd8, 0x00, 0x3d, 0x05, 0xcf, 0x09, 0x3e, 0x1a, 0xa5, 0xa0, 0xbd, 
0x9d, 0x9f, 0x6c, 0xbd, 0x0b, 0xfe, 0x9f, 0xbd, 0xb7, 0x9e, 0xdf, 0x3d, 
0x59, 0xf2, 0xaf, 0x3d, 0xc7, 0xcd, 0x06, 0xbe, 0x01, 0x5d, 0xb6, 0xbd, 
0x8a, 0x71, 0x2c, 0xbd, 0x91, 0x49, 0x1b, 0x3d, 0x09, 0xdd, 0xb8, 0x3e, 
0xec, 0x79, 0x9b, 0x3b, 0xff, 0x1b, 0x06, 0xbe, 0x08, 0xa5, 0xba, 0xbc, 
0xbd, 0x1d, 0xac, 0xbd, 0x65, 0xfd, 0x43, 0xbe, 0x84, 0xe0, 0x98, 0xbd, 
0x10, 0xc9, 0x22, 0x3e, 0x1c, 0x51, 0x43, 0xbd, 0x16, 0xa0, 0x14, 0x3d, 
0x51, 0x8a, 0x35, 0x3e, 0xbe, 0x64, 0xea, 0xbc, 0xe4, 0x82, 0xea, 0xbc, 
0xb0, 0xc4, 0x86, 0x3c, 0xfa, 0x61, 0xaa, 0x3d, 0xb9, 0x33, 0x19, 0x3e, 
0xb9, 0xb3, 0x1d, 0xbd, 0xad, 0x21, 0x41, 0xbe, 0xc5, 0xe6, 0x5a, 0x3d, 
0x43, 0xa9, 0x8c, 0xbe, 0x47, 0x97, 0xc0, 0xbd, 0x42, 0x61, 0x18, 0xbe, 
0x08, 0xbd, 0xc5, 0x3c, 0xee, 0x74, 0xbe, 0xb9, 0xbe, 0x14, 0x7e, 0x3e, 
0x2a, 0x34, 0x98, 0xbd, 0x51, 0x8d, 0x1f, 0xbe, 0xaf, 0x71, 0x18, 0xbe, 
0xcf, 0x4a, 0x16, 0x3e, 0x95, 0x23, 0xe7, 0xbd, 0x87, 0x7d, 0x3f, 0xbe, 
0x03, 0x70, 0x04, 0x3d, 0x31, 0x80, 0x14, 0xbe, 0x70, 0xe9, 0xda, 0xbc, 
0xb2, 0x8a, 0x31, 0xbe, 0x45, 0xd9, 0x16, 0x3e, 0xe3, 0x9b, 0x24, 0xbe, 
0xde, 0x7c, 0x76, 0x3c, 0xe9, 0x14, 0x02, 0x3e, 0xf3, 0xbe, 0xb6, 0x3b, 
0x1d, 0xe8, 0x32, 0xbe, 0xf2, 0xd5, 0x04, 0x3e, 0x28, 0xe2, 0xaa, 0x3d, 
0xd9, 0x8e, 0x0c, 0x3e, 0xeb, 0x88, 0xb4, 0x3d, 0x06, 0x25, 0x2b, 0xbd, 
0x34, 0xc1, 0xca, 0xbd, 0x29, 0x81, 0x71, 0x3d, 0xd3, 0xa3, 0x30, 0x3e, 
0x72, 0xa2, 0x3e, 0x3d, 0x4a, 0x01, 0xbe, 0x3d, 0xe0, 0x57, 0x01, 0xbe, 
0x74, 0x28, 0x0a, 0xbe, 0x91, 0xbb, 0x40, 0x3b, 0xbb, 0xd2, 0x04, 0x3e, 
0x83, 0xf9, 0x25, 0xbe, 0xc0, 0xc6, 0xd5, 0xbd, 0xa1, 0x8f, 0x13, 0x3e, 
0xc7, 0x04, 0x2a, 0x3d, 0xc6, 0xbc, 0x0e, 0xbe, 0x65, 0x1d, 0x0e, 0xbe, 
0xfd, 0x9b, 0xa5, 0x3c, 0xe8, 0x7c, 0x05, 0x3e, 0x3c, 0x4c, 0x17, 0x3e, 
0x3a, 0x43, 0x25, 0x3c, 0x40, 0x6e, 0x39, 0xbe, 0x7a, 0xf9, 0xf3, 0xbc, 
0x9e, 0x36, 0x0e, 0x3e, 0xcd, 0xed, 0x04, 0xbe, 0xc8, 0x05, 0x09, 0xbe, 
0x9a, 0xe0, 0x04, 0xbe, 0x35, 0xf6, 0x93, 0x3d, 0xa3, 0x18, 0x09, 0xbe, 
0x3b, 0xed, 0x62, 0xbe, 0xa9, 0x70, 0x10, 0x3e, 0x74, 0x6c, 0x34, 0xbd, 
0xa3, 0x85, 0xf0, 0xba, 0xc3, 0x59, 0xa7, 0xbd, 0xa8, 0x27, 0x66, 0xbd, 
0x29, 0xda, 0x18, 0x3e, 0x50, 0xce, 0x14, 0xbc, 0xdd, 0xe1, 0x4e, 0x3e, 
0x4d, 0x5c, 0x75, 0xbd, 0xf1, 0x46, 0x61, 0x3d, 0x54, 0xf1, 0x42, 0x3e, 
0x34, 0x42, 0x22, 0x3e, 0x55, 0x6a, 0x1e, 0xbe, 0x04, 0x16, 0x2a, 0xbe, 
0xd3, 0x49, 0x56, 0xbd, 0x03, 0x3c, 0x93, 0xbb, 0x88, 0x60, 0x59, 0xbd, 
0x90, 0xa9, 0x09, 0x3d, 0x4d, 0x13, 0xa5, 0x3c, 0xc7, 0x3f, 0x2c, 0x3e, 
0x08, 0x85, 0xc2, 0x3d, 0xce, 0xb5, 0xe1, 0xbd, 0xd5, 0xdc, 0x55, 0xbe, 
0x26, 0x44, 0x3e, 0xbc, 0xae, 0x9b, 0x44, 0x3e, 0x51, 0x5a, 0x93, 0xbd, 
0x78, 0xee, 0xc6, 0xbd, 0xa1, 0x77, 0xdd, 0x3d, 0xd7, 0x72, 0x28, 0xbd, 
0x3f, 0x3d, 0x3b, 0x3e, 0x87, 0x88, 0x11, 0x3d, 0x65, 0x57, 0xb0, 0x3d, 
0x92, 0xb6, 0xd8, 0x3b, 0xc3, 0x42, 0x39, 0xbe, 0xba, 0x1c, 0x14, 0x3e, 
0x7a, 0x27, 0xd9, 0xbd, 0x47, 0xe9, 0x75, 0xbd, 0x0c, 0xc1, 0x51, 0x3e, 
0x8c, 0x5f, 0x01, 0xbe, 0xdf, 0x2d, 0xd7, 0xbd, 0x3e, 0xf7, 0xaf, 0x3d, 
0xee, 0xb2, 0x4f, 0x3c, 0xa6, 0x21, 0xad, 0x3d, 0x2e, 0x65, 0x54, 0x3d, 
0x57, 0xde, 0xf4, 0xbd, 0xd1, 0xea, 0xd1, 0x3c, 0xcb, 0x41, 0x27, 0xbe, 
0x09, 0x51, 0xda, 0xbd, 0x82, 0xf6, 0x4a, 0x3e, 0xac, 0xd6, 0x48, 0x3e, 
0x09, 0xce, 0xdb, 0x3c, 0x14, 0x7d, 0x30, 0x3d, 0xcc, 0x84, 0x16, 0xbe, 
0xc0, 0x45, 0xf9, 0xbb, 0xe8, 0xe1, 0x09, 0xbe, 0x7b, 0xe4, 0xda, 0x3c, 
0xa2, 0x5a, 0x11, 0x3e, 0x91, 0x5e, 0x4b, 0x3e, 0x00, 0xbe, 0xe3, 0x3d, 
0x33, 0x35, 0x46, 0x3e, 0x70, 0xe5, 0x8b, 0x3d, 0x98, 0x26, 0xac, 0x3d, 
0xd4, 0x85, 0x95, 0x3d, 0x08, 0xc8, 0x49, 0x3d, 0x85, 0x7a, 0x8e, 0x3d, 
0x56, 0x84, 0x08, 0x3e, 0x90, 0x12, 0xed, 0xbc, 0x10, 0xed, 0x47, 0xbe, 
0xcd, 0x30, 0x75, 0xbc, 0xe0, 0x54, 0xeb, 0xbd, 0x4f, 0x25, 0xf9, 0xbd, 
0x26, 0x91, 0x30, 0x3e, 0xef, 0x03, 0x42, 0xbe, 0x1d, 0x64, 0x05, 0xbe, 
0x37, 0x0f, 0x08, 0x3e, 0xf0, 0xdb, 0xeb, 0x3d, 0x06, 0x6c, 0x2f, 0xbe, 
0xa0, 0x62, 0xaf, 0x3d, 0xfb, 0x44, 0x0c, 0xbe, 0x7e, 0xb2, 0xd7, 0xbd, 
0x6f, 0xb1, 0xbb, 0xbd, 0xc8, 0x64, 0x51, 0x3c, 0x6f, 0x4a, 0x43, 0x3d, 
0x1b, 0x65, 0x86, 0xbd, 0x2d, 0x0e, 0xdd, 0xbd, 0x8b, 0x89, 0x13, 0x3e, 
0xb4, 0x6a, 0x25, 0x3e, 0xa1, 0x3f, 0xd5, 0x3d, 0x26, 0x5f, 0x1e, 0xbe, 
0xe1, 0xfc, 0x0f, 0xbe, 0xe9, 0x0a, 0x87, 0xbd, 0x93, 0xf3, 0xb4, 0x3c, 
0x89, 0xe9, 0xf6, 0xbd, 0xb4, 0x69, 0xe9, 0xbd, 0xf6, 0xca, 0xcf, 0x3d, 
0xe9, 0x7b, 0x7a, 0xbd, 0x60, 0x01, 0xb7, 0x3d, 0x58, 0x9e, 0x79, 0x3d, 
0xd9, 0x71, 0xa1, 0x3d, 0xe7, 0x65, 0x09, 0x3d, 0x6c, 0x2c, 0xbd, 0x3d, 
0xd9, 0xbe, 0xe3, 0x3d, 0x65, 0x3f, 0x87, 0xbd, 0x38, 0x67, 0x33, 0xbc, 
0xbe, 0xb6, 0x16, 0x3d, 0x78, 0x49, 0x2c, 0x3e, 0xc7, 0x58, 0xc4, 0x3d, 
0x10, 0xa2, 0xfd, 0xbd, 0xba, 0xff, 0xff, 0xff, 0x04, 0x00, 0x00, 0x00, 
0x0c, 0x00, 0x00, 0x00, 0xff, 0xff, 0xff, 0xff, 0x1e, 0x00, 0x00, 0x00, 
0x08, 0x00, 0x00, 0x00, 0xd2, 0xff, 0xff, 0xff, 0x04, 0x00, 0x00, 0x00, 
0x20, 0x00, 0x00, 0x00, 0xe1, 0x0f, 0x88, 0x3c, 0xfd, 0x6e, 0x69, 0x3d, 
0xc5, 0x71, 0x48, 0xbd, 0xf7, 0xd2, 0x4f, 0xbd, 0xd0, 0x86, 0x09, 0x3e, 
0x87, 0x12, 0x96, 0x3d, 0xc5, 0xa1, 0xf2, 0xbb, 0x5e, 0x8b, 0xb0, 0x3d, 
0x00, 0x00, 0x06, 0x00, 0x08, 0x00, 0x04, 0x00, 0x06, 0x00, 0x00, 0x00, 
0x04, 0x00, 0x00, 0x00, 0x20, 0x00, 0x00, 0x00, 0x93, 0x2c, 0x14, 0xbd, 
0x2f, 0x74, 0x22, 0x3d, 0x01, 0x5b, 0x60, 0x3d, 0x14, 0x49, 0x96, 0x3d, 
0xcf, 0x06, 0x83, 0x3d, 0x22, 0x2f, 0x95, 0xbc, 0x66, 0x13, 0x7a, 0xbc, 
0xd1, 0xde, 0x2d, 0xbc, 0x90, 0xf5, 0xff, 0xff, 0x94, 0xf5, 0xff, 0xff, 
0x0f, 0x00, 0x00, 0x00, 0x4d, 0x4c, 0x49, 0x52, 0x20, 0x43, 0x6f, 0x6e, 
0x76, 0x65, 0x72, 0x74, 0x65, 0x64, 0x2e, 0x00, 0x01, 0x00, 0x00, 0x00, 
0x14, 0x00, 0x00, 0x00, 0x00, 0x00, 0x0e, 0x00, 0x18, 0x00, 0x14, 0x00, 
0x10, 0x00, 0x0c, 0x00, 0x08, 0x00, 0x04, 0x00, 0x0e, 0x00, 0x00, 0x00, 
0x14, 0x00, 0x00, 0x00, 0x1c, 0x00, 0x00, 0x00, 0xf0, 0x01, 0x00, 0x00, 
0xf4, 0x01, 0x00, 0x00, 0xf8, 0x01, 0x00, 0x00, 0x04, 0x00, 0x00, 0x00, 
0x6d, 0x61, 0x69, 0x6e, 0x00, 0x00, 0x00, 0x00, 0x08, 0x00, 0x00, 0x00, 
0xa8, 0x01, 0x00, 0x00, 0x44, 0x01, 0x00, 0x00, 0x0c, 0x01, 0x00, 0x00, 
0xd0, 0x00, 0x00, 0x00, 0x88, 0x00, 0x00, 0x00, 0x60, 0x00, 0x00, 0x00, 
0x28, 0x00, 0x00, 0x00, 0x04, 0x00, 0x00, 0x00, 0x16, 0xff, 0xff, 0xff, 
0x0c, 0x00, 0x00, 0x00, 0x10, 0x00, 0x00, 0x00, 0x04, 0x00, 0x00, 0x00, 
0x01, 0x00, 0x00, 0x00, 0x11, 0x00, 0x00, 0x00, 0x01, 0x00, 0x00, 0x00, 
0x10, 0x00, 0x00, 0x00, 0x06, 0xff, 0xff, 0xff, 0x14, 0x00, 0x00, 0x00, 
0x00, 0x00, 0x00, 0x08, 0x10, 0x00, 0x00, 0x00, 0x14, 0x00, 0x00, 0x00, 
0x03, 0x00, 0x00, 0x00, 0x44, 0xf6, 0xff, 0xff, 0x01, 0x00, 0x00, 0x00, 
0x10, 0x00, 0x00, 0x00, 0x03, 0x00, 0x00, 0x00, 0x0f, 0x00, 0x00, 0x00, 
0x09, 0x00, 0x00, 0x00, 0x06, 0x00, 0x00, 0x00, 0x6a, 0xff, 0xff, 0xff, 
0x0c, 0x00, 0x00, 0x00, 0x10, 0x00, 0x00, 0x00, 0x02, 0x00, 0x00, 0x00, 
0x01, 0x00, 0x00, 0x00, 0x0f, 0x00, 0x00, 0x00, 0x02, 0x00, 0x00, 0x00, 
0x0e, 0x00, 0x00, 0x00, 0x07, 0x00, 0x00, 0x00, 0x5e, 0xff, 0xff, 0xff, 
0x14, 0x00, 0x00, 0x00, 0x00, 0x00, 0x00, 0x01, 0x20, 0x00, 0x00, 0x00, 
0x24, 0x00, 0x00, 0x00, 0x01, 0x00, 0x00, 0x00, 0x50, 0xff, 0xff, 0xff, 
0x00, 0x00, 0x00, 0x01, 0x01, 0x00, 0x00, 0x00, 0x01, 0x00, 0x00, 0x00, 
0x00, 0x00, 0x00, 0x01, 0x01, 0x00, 0x00, 0x00, 0x0e, 0x00, 0x00, 0x00, 
0x03, 0x00, 0x00, 0x00, 0x0d, 0x00, 0x00, 0x00, 0x05, 0x00, 0x00, 0x00, 
0x02, 0x00, 0x00, 0x00, 0x42, 0xff, 0xff, 0xff, 0x10, 0x00, 0x00, 0x00, 
0x00, 0x00, 0x00, 0x34, 0x0c, 0x00, 0x00, 0x00, 0x10, 0x00, 0x00, 0x00, 
0xdc, 0xf6, 0xff, 0xff, 0x01, 0x00, 0x00, 0x00, 0x0d, 0x00, 0x00, 0x00, 
0x02, 0x00, 0x00, 0x00, 0x0c, 0x00, 0x00, 0x00, 0x08, 0x00, 0x00, 0x00, 
0x00, 0x00, 0x0a, 0x00, 0x10, 0x00, 0x0c, 0x00, 0x08, 0x00, 0x04, 0x00, 
0x0a, 0x00, 0x00, 0x00, 0x0c, 0x00, 0x00, 0x00, 0x10, 0x00, 0x00, 0x00, 
0x02, 0x00, 0x00, 0x00, 0x01, 0x00, 0x00, 0x00, 0x0c, 0x00, 0x00, 0x00, 
0x02, 0x00, 0x00, 0x00, 0x0b, 0x00, 0x00, 0x00, 0x03, 0x00, 0x00, 0x00, 
0x00, 0x00, 0x0e, 0x00, 0x18, 0x00, 0x14, 0x00, 0x10, 0x00, 0x0c, 0x00, 
0x0b, 0x00, 0x04, 0x00, 0x0e, 0x00, 0x00, 0x00, 0x20, 0x00, 0x00, 0x00, 
0x00, 0x00, 0x00, 0x01, 0x2c, 0x00, 0x00, 0x00, 0x30, 0x00, 0x00, 0x00, 
0x01, 0x00, 0x00, 0x00, 0x0c, 0x00, 0x14, 0x00, 0x13, 0x00, 0x0c, 0x00, 
0x08, 0x00, 0x07, 0x00, 0x0c, 0x00, 0x00, 0x00, 0x00, 0x00, 0x00, 0x01, 
0x01, 0x00, 0x00, 0x00, 0x01, 0x00, 0x00, 0x00, 0x00, 0x00, 0x00, 0x01, 
0x01, 0x00, 0x00, 0x00, 0x0b, 0x00, 0x00, 0x00, 0x03, 0x00, 0x00, 0x00, 
0x0a, 0x00, 0x00, 0x00, 0x04, 0x00, 0x00, 0x00, 0x01, 0x00, 0x00, 0x00, 
0x00, 0x00, 0x0e, 0x00, 0x14, 0x00, 0x00, 0x00, 0x10, 0x00, 0x0c, 0x00, 
0x0b, 0x00, 0x04, 0x00, 0x0e, 0x00, 0x00, 0x00, 0x10, 0x00, 0x00, 0x00, 
0x00, 0x00, 0x00, 0x34, 0x0c, 0x00, 0x00, 0x00, 0x10, 0x00, 0x00, 0x00, 
0xa8, 0xf7, 0xff, 0xff, 0x01, 0x00, 0x00, 0x00, 0x0a, 0x00, 0x00, 0x00, 
0x02, 0x00, 0x00, 0x00, 0x00, 0x00, 0x00, 0x00, 0x08, 0x00, 0x00, 0x00, 
0x01, 0x00, 0x00, 0x00, 0x11, 0x00, 0x00, 0x00, 0x01, 0x00, 0x00, 0x00, 
0x00, 0x00, 0x00, 0x00, 0x12, 0x00, 0x00, 0x00, 0x00, 0x08, 0x00, 0x00, 
0x90, 0x07, 0x00, 0x00, 0x20, 0x07, 0x00, 0x00, 0xcc, 0x06, 0x00, 0x00, 
0x60, 0x06, 0x00, 0x00, 0x0c, 0x06, 0x00, 0x00, 0xb8, 0x05, 0x00, 0x00, 
0x6c, 0x05, 0x00, 0x00, 0x18, 0x05, 0x00, 0x00, 0xd0, 0x04, 0x00, 0x00, 
0x5c, 0x04, 0x00, 0x00, 0x5c, 0x03, 0x00, 0x00, 0x98, 0x02, 0x00, 0x00, 
0x20, 0x02, 0x00, 0x00, 0x30, 0x01, 0x00, 0x00, 0xd4, 0x00, 0x00, 0x00, 
0x60, 0x00, 0x00, 0x00, 0x04, 0x00, 0x00, 0x00, 0x5e, 0xf8, 0xff, 0xff, 
0x00, 0x00, 0x00, 0x01, 0x14, 0x00, 0x00, 0x00, 0x1c, 0x00, 0x00, 0x00, 
0x1c, 0x00, 0x00, 0x00, 0x12, 0x00, 0x00, 0x00, 0x34, 0x00, 0x00, 0x00, 
0x02, 0x00, 0x00, 0x00, 0xff, 0xff, 0xff, 0xff, 0x01, 0x00, 0x00, 0x00, 
0x44, 0xf8, 0xff, 0xff, 0x19, 0x00, 0x00, 0x00, 0x53, 0x74, 0x61, 0x74, 
0x65, 0x66, 0x75, 0x6c, 0x50, 0x61, 0x72, 0x74, 0x69, 0x74, 0x69, 0x6f, 
0x6e, 0x65, 0x64, 0x43, 0x61, 0x6c, 0x6c, 0x3a, 0x30, 0x00, 0x00, 0x00, 
0x02, 0x00, 0x00, 0x00, 0x01, 0x00, 0x00, 0x00, 0x01, 0x00, 0x00, 0x00, 
0xb6, 0xf8, 0xff, 0xff, 0x00, 0x00, 0x00, 0x01, 0x14, 0x00, 0x00, 0x00, 
0x1c, 0x00, 0x00, 0x00, 0x1c, 0x00, 0x00, 0x00, 0x11, 0x00, 0x00, 0x00, 
0x4c, 0x00, 0x00, 0x00, 0x02, 0x00, 0x00, 0x00, 0xff, 0xff, 0xff, 0xff, 
0x01, 0x00, 0x00, 0x00, 0x9c, 0xf8, 0xff, 0xff, 0x30, 0x00, 0x00, 0x00, 
0x73, 0x65, 0x71, 0x75, 0x65, 0x6e, 0x74, 0x69, 0x61, 0x6c, 0x2f, 0x64, 
0x65, 0x6e, 0x73, 0x65, 0x2f, 0x4d, 0x61, 0x74, 0x4d, 0x75, 0x6c, 0x3b, 
0x73, 0x65, 0x71, 0x75, 0x65, 0x6e, 0x74, 0x69, 0x61, 0x6c, 0x2f, 0x64, 
0x65, 0x6e, 0x73, 0x65, 0x2f, 0x42, 0x69, 0x61, 0x73, 0x41, 0x64, 0x64, 
0x00, 0x00, 0x00, 0x00, 0x02, 0x00, 0x00, 0x00, 0x01, 0x00, 0x00, 0x00, 
0x01, 0x00, 0x00, 0x00, 0x26, 0xf9, 0xff, 0xff, 0x00, 0x00, 0x00, 0x01, 
0x14, 0x00, 0x00, 0x00, 0x1c, 0x00, 0x00, 0x00, 0x1c, 0x00, 0x00, 0x00, 
0x10, 0x00, 0x00, 0x00, 0x34, 0x00, 0x00, 0x00, 0x02, 0x00, 0x00, 0x00, 
0xff, 0xff, 0xff, 0xff, 0xe0, 0x00, 0x00, 0x00, 0x0c, 0xf9, 0xff, 0xff, 
0x1a, 0x00, 0x00, 0x00, 0x73, 0x65, 0x71, 0x75, 0x65, 0x6e, 0x74, 0x69, 
0x61, 0x6c, 0x2f, 0x66, 0x6c, 0x61, 0x74, 0x74, 0x65, 0x6e, 0x2f, 0x52, 
0x65, 0x73, 0x68, 0x61, 0x70, 0x65, 0x00, 0x00, 0x02, 0x00, 0x00, 0x00, 
0x01, 0x00, 0x00, 0x00, 0xe0, 0x00, 0x00, 0x00, 0x7e, 0xf9, 0xff, 0xff, 
0x00, 0x00, 0x00, 0x01, 0x14, 0x00, 0x00, 0x00, 0x24, 0x00, 0x00, 0x00, 
0x24, 0x00, 0x00, 0x00, 0x0f, 0x00, 0x00, 0x00, 0xc0, 0x00, 0x00, 0x00, 
0x04, 0x00, 0x00, 0x00, 0xff, 0xff, 0xff, 0xff, 0x01, 0x00, 0x00, 0x00, 
0x1c, 0x00, 0x00, 0x00, 0x08, 0x00, 0x00, 0x00, 0x6c, 0xf9, 0xff, 0xff, 
0x9d, 0x00, 0x00, 0x00, 0x73, 0x65, 0x71, 0x75, 0x65, 0x6e, 0x74, 0x69, 
0x61, 0x6c, 0x2f, 0x63, 0x6f, 0x6e, 0x76, 0x31, 0x64, 0x5f, 0x31, 0x2f, 
0x52, 0x65, 0x6c, 0x75, 0x3b, 0x73, 0x65, 0x71, 0x75, 0x65, 0x6e, 0x74, 
0x69, 0x61, 0x6c, 0x2f, 0x63, 0x6f, 0x6e, 0x76, 0x31, 0x64, 0x5f, 0x31, 
0x2f, 0x42, 0x69, 0x61, 0x73, 0x41, 0x64, 0x64, 0x3b, 0x73, 0x65, 0x71, 
0x75, 0x65, 0x6e, 0x74, 0x69, 0x61, 0x6c, 0x2f, 0x63, 0x6f, 0x6e, 0x76, 
0x31, 0x64, 0x5f, 0x31, 0x2f, 0x43, 0x6f, 0x6e, 0x76, 0x31, 0x44, 0x2f, 
0x53, 0x71, 0x75, 0x65, 0x65, 0x7a, 0x65, 0x3b, 0x73, 0x65, 0x71, 0x75, 
0x65, 0x6e, 0x74, 0x69, 0x61, 0x6c, 0x2f, 0x63, 0x6f, 0x6e, 0x76, 0x31, 
0x64, 0x5f, 0x31, 0x2f, 0x42, 0x69, 0x61, 0x73, 0x41, 0x64, 0x64, 0x2f, 
0x52, 0x65, 0x61, 0x64, 0x56, 0x61, 0x72, 0x69, 0x61, 0x62, 0x6c, 0x65, 
0x4f, 0x70, 0x3b, 0x73, 0x65, 0x71, 0x75, 0x65, 0x6e, 0x74, 0x69, 0x61, 
0x6c, 0x2f, 0x63, 0x6f, 0x6e, 0x76, 0x31, 0x64, 0x5f, 0x31, 0x2f, 0x43, 
0x6f, 0x6e, 0x76, 0x31, 0x44, 0x00, 0x00, 0x00, 0x04, 0x00, 0x00, 0x00, 
0x01, 0x00, 0x00, 0x00, 0x01, 0x00, 0x00, 0x00, 0x1c, 0x00, 0x00, 0x00, 
0x08, 0x00, 0x00, 0x00, 0x6a, 0xfa, 0xff, 0xff, 0x00, 0x00, 0x00, 0x01, 
0x14, 0x00, 0x00, 0x00, 0x24, 0x00, 0x00, 0x00, 0x24, 0x00, 0x00, 0x00, 
0x0e, 0x00, 0x00, 0x00, 0x48, 0x00, 0x00, 0x00, 0x04, 0x00, 0x00, 0x00, 
0xff, 0xff, 0xff, 0xff, 0x01, 0x00, 0x00, 0x00, 0x1e, 0x00, 0x00, 0x00, 
0x08, 0x00, 0x00, 0x00, 0x58, 0xfa, 0xff, 0xff, 0x25, 0x00, 0x00, 0x00, 
0x73, 0x65, 0x71, 0x75, 0x65, 0x6e, 0x74, 0x69, 0x61, 0x6c, 0x2f, 0x63, 
0x6f, 0x6e, 0x76, 0x31, 0x64, 0x5f, 0x31, 0x2f, 0x43, 0x6f, 0x6e, 0x76, 
0x31, 0x44, 0x2f, 0x45, 0x78, 0x70, 0x61, 0x6e, 0x64, 0x44, 0x69, 0x6d, 
0x73, 0x00, 0x00, 0x00, 0x04, 0x00, 0x00, 0x00, 0x01, 0x00, 0x00, 0x00, 
0x01, 0x00, 0x00, 0x00, 0x1e, 0x00, 0x00, 0x00, 0x08, 0x00, 0x00, 0x00, 
0xde, 0xfa, 0xff, 0xff, 0x00, 0x00, 0x00, 0x01, 0x14, 0x00, 0x00, 0x00, 
0x20, 0x00, 0x00, 0x00, 0x20, 0x00, 0x00, 0x00, 0x0d, 0x00, 0x00, 0x00, 
0x98, 0x00, 0x00, 0x00, 0x03, 0x00, 0x00, 0x00, 0xff, 0xff, 0xff, 0xff, 
0x1e, 0x00, 0x00, 0x00, 0x08, 0x00, 0x00, 0x00, 0xc8, 0xfa, 0xff, 0xff, 
0x7a, 0x00, 0x00, 0x00, 0x73, 0x65, 0x71, 0x75, 0x65, 0x6e, 0x74, 0x69, 
0x61, 0x6c, 0x2f, 0x63, 0x6f, 0x6e, 0x76, 0x31, 0x64, 0x2f, 0x52, 0x65, 
0x6c, 0x75, 0x3b, 0x73, 0x65, 0x71, 0x75, 0x65, 0x6e, 0x74, 0x69, 0x61, 
0x6c, 0x2f, 0x63, 0x6f, 0x6e, 0x76, 0x31, 0x64, 0x2f, 0x42, 0x69, 0x61, 
0x73, 0x41, 0x64, 0x64, 0x3b, 0x73, 0x65, 0x71, 0x75, 0x65, 0x6e, 0x74, 
0x69, 0x61, 0x6c, 0x2f, 0x63, 0x6f, 0x6e, 0x76, 0x31, 0x64, 0x2f, 0x43, 
0x6f, 0x6e, 0x76, 0x31, 0x44, 0x2f, 0x53, 0x71, 0x75, 0x65, 0x65, 0x7a, 
0x65, 0x3b, 0x73, 0x65, 0x71, 0x75, 0x65, 0x6e, 0x74, 0x69, 0x61, 0x6c, 
0x2f, 0x63, 0x6f, 0x6e, 0x76, 0x31, 0x64, 0x2f, 0x42, 0x69, 0x61, 0x73, 
0x41, 0x64, 0x64, 0x2f, 0x52, 0x65, 0x61, 0x64, 0x56, 0x61, 0x72, 0x69, 
0x61, 0x62, 0x6c, 0x65, 0x4f, 0x70, 0x00, 0x00, 0x03, 0x00, 0x00, 0x00, 
0x01, 0x00, 0x00, 0x00, 0x1e, 0x00, 0x00, 0x00, 0x08, 0x00, 0x00, 0x00, 
0x9e, 0xfb, 0xff, 0xff, 0x00, 0x00, 0x00, 0x01, 0x14, 0x00, 0x00, 0x00, 
0x24, 0x00, 0x00, 0x00, 0x24, 0x00, 0x00, 0x00, 0x0c, 0x00, 0x00, 0x00, 
0xd0, 0x00, 0x00, 0x00, 0x04, 0x00, 0x00, 0x00, 0xff, 0xff, 0xff, 0xff, 
0x01, 0x00, 0x00, 0x00, 0x1e, 0x00, 0x00, 0x00, 0x08, 0x00, 0x00, 0x00, 
0x8c, 0xfb, 0xff, 0xff, 0xae, 0x00, 0x00, 0x00, 0x73, 0x65, 0x71, 0x75, 
0x65, 0x6e, 0x74, 0x69, 0x61, 0x6c, 0x2f, 0x63, 0x6f, 0x6e, 0x76, 0x31, 
0x64, 0x2f, 0x52, 0x65, 0x6c, 0x75, 0x3b, 0x73, 0x65, 0x71, 0x75, 0x65, 
0x6e, 0x74, 0x69, 0x61, 0x6c, 0x2f, 0x63, 0x6f, 0x6e, 0x76, 0x31, 0x64, 
0x2f, 0x42, 0x69, 0x61, 0x73, 0x41, 0x64, 0x64, 0x3b, 0x73, 0x65, 0x71, 
0x75, 0x65, 0x6e, 0x74, 0x69, 0x61, 0x6c, 0x2f, 0x63, 0x6f, 0x6e, 0x76, 
0x31, 0x64, 0x2f, 0x43, 0x6f, 0x6e, 0x76, 0x31, 0x44, 0x2f, 0x53, 0x71, 
0x75, 0x65, 0x65, 0x7a, 0x65, 0x3b, 0x73, 0x65, 0x71, 0x75, 0x65, 0x6e, 
0x74, 0x69, 0x61, 0x6c, 0x2f, 0x63, 0x6f, 0x6e, 0x76, 0x31, 0x64, 0x2f, 
0x42, 0x69, 0x61, 0x73, 0x41, 0x64, 0x64, 0x2f, 0x52, 0x65, 0x61, 0x64, 
0x56, 0x61, 0x72, 0x69, 0x61, 0x62, 0x6c, 0x65, 0x4f, 0x70, 0x3b, 0x73, 
0x65, 0x71, 0x75, 0x65, 0x6e, 0x74, 0x69, 0x61, 0x6c, 0x2f, 0x63, 0x6f, 
0x6e, 0x76, 0x31, 0x64, 0x5f, 0x31, 0x2f, 0x43, 0x6f, 0x6e, 0x76, 0x31, 
0x44, 0x3b, 0x73, 0x65, 0x71, 0x75, 0x65, 0x6e, 0x74, 0x69, 0x61, 0x6c, 
0x2f, 0x63, 0x6f, 0x6e, 0x76, 0x31, 0x64, 0x2f, 0x43, 0x6f, 0x6e, 0x76, 
0x31, 0x44, 0x00, 0x00, 0x04, 0x00, 0x00, 0x00, 0x01, 0x00, 0x00, 0x00, 
0x01, 0x00, 0x00, 0x00, 0x1e, 0x00, 0x00, 0x00, 0x08, 0x00, 0x00, 0x00, 
0x9a, 0xfc, 0xff, 0xff, 0x00, 0x00, 0x00, 0x01, 0x14, 0x00, 0x00, 0x00, 
0x24, 0x00, 0x00, 0x00, 0x24, 0x00, 0x00, 0x00, 0x0b, 0x00, 0x00, 0x00, 
0x44, 0x00, 0x00, 0x00, 0x04, 0x00, 0x00, 0x00, 0xff, 0xff, 0xff, 0xff, 
0x01, 0x00, 0x00, 0x00, 0x20, 0x00, 0x00, 0x00, 0x30, 0x00, 0x00, 0x00, 
0x88, 0xfc, 0xff, 0xff, 0x23, 0x00, 0x00, 0x00, 0x73, 0x65, 0x71, 0x75, 
0x65, 0x6e, 0x74, 0x69, 0x61, 0x6c, 0x2f, 0x63, 0x6f, 0x6e, 0x76, 0x31, 
0x64, 0x2f, 0x43, 0x6f, 0x6e, 0x76, 0x31, 0x44, 0x2f, 0x45, 0x78, 0x70, 
0x61, 0x6e, 0x64, 0x44, 0x69, 0x6d, 0x73, 0x00, 0x04, 0x00, 0x00, 0x00, 
0x01, 0x00, 0x00, 0x00, 0x01, 0x00, 0x00, 0x00, 0x20, 0x00, 0x00, 0x00, 
0x30, 0x00, 0x00, 0x00, 0x76, 0xfd, 0xff, 0xff, 0x00, 0x00, 0x00, 0x01, 
0x10, 0x00, 0x00, 0x00, 0x10, 0x00, 0x00, 0x00, 0x0a, 0x00, 0x00, 0x00, 
0x24, 0x00, 0x00, 0x00, 0xe0, 0xfc, 0xff, 0xff, 0x17, 0x00, 0x00, 0x00, 
0x73, 0x65, 0x71, 0x75, 0x65, 0x6e, 0x74, 0x69, 0x61, 0x6c, 0x2f, 0x64, 
0x65, 0x6e, 0x73, 0x65, 0x2f, 0x4d, 0x61, 0x74, 0x4d, 0x75, 0x6c, 0x00, 
0x02, 0x00, 0x00, 0x00, 0x01, 0x00, 0x00, 0x00, 0xe0, 0x00, 0x00, 0x00, 
0x76, 0xfe, 0xff, 0xff, 0x00, 0x00, 0x00, 0x01, 0x14, 0x00, 0x00, 0x00, 
0x14, 0x00, 0x00, 0x00, 0x09, 0x00, 0x00, 0x00, 0x00, 0x00, 0x00, 0x02, 
0x34, 0x00, 0x00, 0x00, 0x28, 0xfd, 0xff, 0xff, 0x27, 0x00, 0x00, 0x00, 
0x73, 0x65, 0x71, 0x75, 0x65, 0x6e, 0x74, 0x69, 0x61, 0x6c, 0x2f, 0x63, 
0x6f, 0x6e, 0x76, 0x31, 0x64, 0x2f, 0x43, 0x6f, 0x6e, 0x76, 0x31, 0x44, 
0x2f, 0x45, 0x78, 0x70, 0x61, 0x6e, 0x64, 0x44, 0x69, 0x6d, 0x73, 0x2f, 
0x64, 0x69, 0x6d, 0x00, 0x00, 0x00, 0x00, 0x00, 0xc6, 0xfe, 0xff, 0xff, 
0x00, 0x00, 0x00, 0x01, 0x14, 0x00, 0x00, 0x00, 0x14, 0x00, 0x00, 0x00, 
0x08, 0x00, 0x00, 0x00, 0x00, 0x00, 0x00, 0x02, 0x28, 0x00, 0x00, 0x00, 
0x78, 0xfd, 0xff, 0xff, 0x18, 0x00, 0x00, 0x00, 0x73, 0x65, 0x71, 0x75, 
0x65, 0x6e, 0x74, 0x69, 0x61, 0x6c, 0x2f, 0x66, 0x6c, 0x61, 0x74, 0x74, 
0x65, 0x6e, 0x2f, 0x43, 0x6f, 0x6e, 0x73, 0x74, 0x00, 0x00, 0x00, 0x00, 
0x01, 0x00, 0x00, 0x00, 0x02, 0x00, 0x00, 0x00, 0x52, 0xfe, 0xff, 0xff, 
0x00, 0x00, 0x00, 0x01, 0x10, 0x00, 0x00, 0x00, 0x10, 0x00, 0x00, 0x00, 
0x07, 0x00, 0x00, 0x00, 0x34, 0x00, 0x00, 0x00, 0xbc, 0xfd, 0xff, 0xff, 
0x27, 0x00, 0x00, 0x00, 0x73, 0x65, 0x71, 0x75, 0x65, 0x6e, 0x74, 0x69, 
0x61, 0x6c, 0x2f, 0x64, 0x65, 0x6e, 0x73, 0x65, 0x2f, 0x42, 0x69, 0x61, 
0x73, 0x41, 0x64, 0x64, 0x2f, 0x52, 0x65, 0x61, 0x64, 0x56, 0x61, 0x72, 
0x69, 0x61, 0x62, 0x6c, 0x65, 0x4f, 0x70, 0x00, 0x01, 0x00, 0x00, 0x00, 
0x01, 0x00, 0x00, 0x00, 0xa2, 0xfe, 0xff, 0xff, 0x00, 0x00, 0x00, 0x01, 
0x10, 0x00, 0x00, 0x00, 0x10, 0x00, 0x00, 0x00, 0x06, 0x00, 0x00, 0x00, 
0x28, 0x00, 0x00, 0x00, 0x0c, 0xfe, 0xff, 0xff, 0x1a, 0x00, 0x00, 0x00, 
0x73, 0x65, 0x71, 0x75, 0x65, 0x6e, 0x74, 0x69, 0x61, 0x6c, 0x2f, 0x63, 
0x6f, 0x6e, 0x76, 0x31, 0x64, 0x5f, 0x31, 0x2f, 0x43, 0x6f, 0x6e, 0x76, 
0x31, 0x44, 0x00, 0x00, 0x04, 0x00, 0x00, 0x00, 0x08, 0x00, 0x00, 0x00, 
0x01, 0x00, 0x00, 0x00, 0x03, 0x00, 0x00, 0x00, 0x08, 0x00, 0x00, 0x00, 
0xf2, 0xfe, 0xff, 0xff, 0x00, 0x00, 0x00, 0x01, 0x10, 0x00, 0x00, 0x00, 
0x10, 0x00, 0x00, 0x00, 0x05, 0x00, 0x00, 0x00, 0x28, 0x00, 0x00, 0x00, 
0x5c, 0xfe, 0xff, 0xff, 0x18, 0x00, 0x00, 0x00, 0x73, 0x65, 0x71, 0x75, 
0x65, 0x6e, 0x74, 0x69, 0x61, 0x6c, 0x2f, 0x63, 0x6f, 0x6e, 0x76, 0x31, 
0x64, 0x2f, 0x43, 0x6f, 0x6e, 0x76, 0x31, 0x44, 0x00, 0x00, 0x00, 0x00, 
0x04, 0x00, 0x00, 0x00, 0x08, 0x00, 0x00, 0x00, 0x01, 0x00, 0x00, 0x00, 
0x03, 0x00, 0x00, 0x00, 0x30, 0x00, 0x00, 0x00, 0x00, 0x00, 0x16, 0x00, 
0x1c, 0x00, 0x18, 0x00, 0x17, 0x00, 0x10, 0x00, 0x0c, 0x00, 0x08, 0x00, 
0x00, 0x00, 0x00, 0x00, 0x00, 0x00, 0x07, 0x00, 0x16, 0x00, 0x00, 0x00, 
0x00, 0x00, 0x00, 0x01, 0x14, 0x00, 0x00, 0x00, 0x14, 0x00, 0x00, 0x00, 
0x04, 0x00, 0x00, 0x00, 0x00, 0x00, 0x00, 0x02, 0x30, 0x00, 0x00, 0x00, 
0xc8, 0xfe, 0xff, 0xff, 0x20, 0x00, 0x00, 0x00, 0x73, 0x65, 0x71, 0x75, 
0x65, 0x6e, 0x74, 0x69, 0x61, 0x6c, 0x2f, 0x63, 0x6f, 0x6e, 0x76, 0x31, 
0x64, 0x2f, 0x43, 0x6f, 0x6e, 0x76, 0x31, 0x44, 0x2f, 0x53, 0x71, 0x75, 
0x65, 0x65, 0x7a, 0x65, 0x00, 0x00, 0x00, 0x00, 0x01, 0x00, 0x00, 0x00, 
0x03, 0x00, 0x00, 0x00, 0xaa, 0xff, 0xff, 0xff, 0x00, 0x00, 0x00, 0x01, 
0x10, 0x00, 0x00, 0x00, 0x10, 0x00, 0x00, 0x00, 0x03, 0x00, 0x00, 0x00, 
0x38, 0x00, 0x00, 0x00, 0x14, 0xff, 0xff, 0xff, 0x2a, 0x00, 0x00, 0x00, 
0x73, 0x65, 0x71, 0x75, 0x65, 0x6e, 0x74, 0x69, 0x61, 0x6c, 0x2f, 0x63, 
0x6f, 0x6e, 0x76, 0x31, 0x64, 0x5f, 0x31, 0x2f, 0x42, 0x69, 0x61, 0x73, 
0x41, 0x64, 0x64, 0x2f, 0x52, 0x65, 0x61, 0x64, 0x56, 0x61, 0x72, 0x69, 
0x61, 0x62, 0x6c, 0x65, 0x4f, 0x70, 0x00, 0x00, 0x01, 0x00, 0x00, 0x00, 
0x08, 0x00, 0x00, 0x00, 0x00, 0x00, 0x16, 0x00, 0x18, 0x00, 0x14, 0x00, 
0x00, 0x00, 0x10, 0x00, 0x0c, 0x00, 0x08, 0x00, 0x00, 0x00, 0x00, 0x00, 
0x00, 0x00, 0x07, 0x00, 0x16, 0x00, 0x00, 0x00, 0x00, 0x00, 0x00, 0x01, 
0x10, 0x00, 0x00, 0x00, 0x10, 0x00, 0x00, 0x00, 0x02, 0x00, 0x00, 0x00, 
0x38, 0x00, 0x00, 0x00, 0x80, 0xff, 0xff, 0xff, 0x28, 0x00, 0x00, 0x00, 
0x73, 0x65, 0x71, 0x75, 0x65, 0x6e, 0x74, 0x69, 0x61, 0x6c, 0x2f, 0x63, 
0x6f, 0x6e, 0x76, 0x31, 0x64, 0x2f, 0x42, 0x69, 0x61, 0x73, 0x41, 0x64, 
0x64, 0x2f, 0x52, 0x65, 0x61, 0x64, 0x56, 0x61, 0x72, 0x69, 0x61, 0x62, 
0x6c, 0x65, 0x4f, 0x70, 0x00, 0x00, 0x00, 0x00, 0x01, 0x00, 0x00, 0x00, 
0x08, 0x00, 0x00, 0x00, 0x00, 0x00, 0x16, 0x00, 0x1c, 0x00, 0x18, 0x00, 
0x00, 0x00, 0x14, 0x00, 0x10, 0x00, 0x0c, 0x00, 0x00, 0x00, 0x00, 0x00, 
0x08, 0x00, 0x07, 0x00, 0x16, 0x00, 0x00, 0x00, 0x00, 0x00, 0x00, 0x01, 
0x14, 0x00, 0x00, 0x00, 0x24, 0x00, 0x00, 0x00, 0x24, 0x00, 0x00, 0x00, 
0x01, 0x00, 0x00, 0x00, 0x40, 0x00, 0x00, 0x00, 0x03, 0x00, 0x00, 0x00, 
0xff, 0xff, 0xff, 0xff, 0x20, 0x00, 0x00, 0x00, 0x30, 0x00, 0x00, 0x00, 
0x04, 0x00, 0x04, 0x00, 0x04, 0x00, 0x00, 0x00, 0x1e, 0x00, 0x00, 0x00, 
0x73, 0x65, 0x72, 0x76, 0x69, 0x6e, 0x67, 0x5f, 0x64, 0x65, 0x66, 0x61, 
0x75, 0x6c, 0x74, 0x5f, 0x63, 0x6f, 0x6e, 0x76, 0x31, 0x64, 0x5f, 0x69, 
0x6e, 0x70, 0x75, 0x74, 0x3a, 0x30, 0x00, 0x00, 0x03, 0x00, 0x00, 0x00, 
0x01, 0x00, 0x00, 0x00, 0x20, 0x00, 0x00, 0x00, 0x30, 0x00, 0x00, 0x00, 
0x05, 0x00, 0x00, 0x00, 0x50, 0x00, 0x00, 0x00, 0x34, 0x00, 0x00, 0x00, 
0x24, 0x00, 0x00, 0x00, 0x14, 0x00, 0x00, 0x00, 0x04, 0x00, 0x00, 0x00, 
0xd0, 0xff, 0xff, 0xff, 0x0e, 0x00, 0x00, 0x00, 0x00, 0x00, 0x00, 0x0e, 
0xdc, 0xff, 0xff, 0xff, 0x09, 0x00, 0x00, 0x00, 0x00, 0x00, 0x00, 0x09, 
0xe8, 0xff, 0xff, 0xff, 0x16, 0x00, 0x00, 0x00, 0x00, 0x00, 0x00, 0x16, 
0xf4, 0xff, 0xff, 0xff, 0x03, 0x00, 0x00, 0x00, 0x00, 0x00, 0x00, 0x03, 
0x0c, 0x00, 0x0c, 0x00, 0x0b, 0x00, 0x00, 0x00, 0x00, 0x00, 0x04, 0x00, 
0x0c, 0x00, 0x00, 0x00, 0x46, 0x00, 0x00, 0x00, 0x00, 0x00, 0x00, 0x46, 

};
